[PAD]
[UNK]
[CLS]
[SEP]
[MASK]
<S>
<T>
!
"
#
$
%
&
'
(
)
*
+
,
-
.
/
0
1
2
3
4
5
6
7
8
9
:
;
<
=
>
?
@
[
\
]
^
_
`
a
b
c
d
e
f
g
h
i
j
k
l
m
n
o
p
q
r
s
t
u
v
w
x
y
z
{
|
}
~
¡
¢
£
¥
§
©
ª
«
¬
®
°
±
²
³
´
µ
·
¹
º
»
¼
½
¾
¿
×
ß
æ
ð
÷
ø
þ
đ
ħ
ı
ł
ŋ
œ
ƒ
ɑ
ɔ
ə
ɛ
ɡ
ɣ
ɨ
ɪ
ɾ
ʀ
ʃ
ʊ
ʌ
ʒ
ʔ
ʰ
ʷ
ʹ
ʻ
ʼ
ʽ
ʾ
ʿ
ˈ
ː
α
β
γ
δ
ε
ζ
η
θ
ι
κ
λ
μ
ν
ξ
ο
π
ρ
ς
σ
τ
υ
φ
χ
ψ
ω
а
б
в
г
д
е
ж
з
и
к
л
м
н
о
п
р
с
т
у
ф
х
ц
ч
ш
щ
ъ
ы
ь
э
ю
я
є
і
ј
њ
ћ
ӏ
ա
բ
գ
դ
ե
թ
ի
լ
կ
հ
մ
յ
ն
ո
պ
ս
վ
տ
ր
ց
ւ
ք
א
ב
ג
ד
ה
ו
ז
ח
ט
י
כ
ל
ם
מ
ן
נ
ס
ע
פ
צ
ק
ר
ש
ת
،
ء
ا
ب
ة
ت
ث
ج
ح
خ
د
ذ
ر
ز
س
ش
ص
ض
ط
ع
غ
ف
ق
ك
ل
م
ن
ه
و
ى
ي
پ
چ
ک
گ
ہ
ی
ः
अ
आ
क
ख
ग
च
ज
ट
ड
ण
त
थ
द
ध
न
प
ब
भ
म
य
र
ल
व
श
ष
स
ह
ा
ि
ी
ो
।
ক
গ
জ
ত
দ
ন
প
ব
ম
য
র
ল
শ
স
হ
া
ি
ী
ে
ਾ
க
ச
ட
த
ந
ன
ப
ம
ய
ர
ற
ல
ள
வ
ா
ி
ு
ெ
ே
ை
ర
ు
ಕ
ಗ
ತ
ದ
ನ
ಮ
ರ
ವ
ಸ
ಾ
ು
ೕ
ം
ക
ട
ത
ന
പ
മ
യ
ര
ല
വ
ാ
ി
െ
േ
ක
ග
ත
ද
න
ප
ම
ය
ර
ල
ව
ස
හ
ා
ෙ
ก
ข
ค
ง
จ
ช
ด
ต
ท
ธ
น
บ
ป
พ
ม
ย
ร
ล
ว
ศ
ส
ห
อ
ะ
า
ำ
เ
แ
โ
ไ
་
က
င
တ
န
ပ
မ
ရ
ာ
ေ
း
ა
ბ
გ
დ
ე
ვ
თ
ი
ლ
მ
ნ
ო
რ
ს
ტ
უ
ᄀ
ᄁ
ᄂ
ᄃ
ᄄ
ᄅ
ᄆ
ᄇ
ᄉ
ᄊ
ᄋ
ᄌ
ᄎ
ᄏ
ᄐ
ᄑ
ᄒ
ᅡ
ᅢ
ᅣ
ᅥ
ᅦ
ᅧ
ᅨ
ᅩ
ᅪ
ᅬ
ᅭ
ᅮ
ᅯ
ᅱ
ᅲ
ᅳ
ᅴ
ᅵ
ᆨ
ᆫ
ᆯ
ᆷ
ᆸ
ᆺ
ᆻ
ᆼ
ក
ន
រ
ស
ា
‐
‑
‒
–
—
―
‘
’
‚
“
”
„
†
‡
•
…
‰
′
″
₂
€
₱
₹
ℓ
№
™
⅓
←
↑
→
↔
⇒
∈
−
∗
∞
∨
≈
≡
≤
≥
⋅
─
━
│
●
★
☆
♠
♦
♭
♯
⟨
⟩
、
。
《
》
「
」
『
』
〜
あ
い
う
え
お
か
き
く
け
こ
さ
し
す
せ
そ
た
ち
っ
つ
て
と
な
に
の
は
ひ
ふ
へ
ほ
ま
み
む
め
も
や
ゆ
よ
ら
り
る
れ
ろ
を
ん
ア
ィ
イ
ウ
エ
オ
カ
キ
ク
ケ
コ
サ
シ
ス
セ
ソ
タ
チ
ッ
ツ
テ
ト
ナ
ニ
ノ
ハ
ヒ
フ
ヘ
ホ
マ
ミ
ム
メ
モ
ャ
ヤ
ュ
ョ
ラ
リ
ル
レ
ロ
ワ
ン
・
ー
一
七
三
上
下
不
世
东
中
主
之
乐
九
乡
事
二
五
井
京
人
亻
仁
代
伊
会
何
作
你
佳
使
保
信
傳
元
光
克
全
八
公
六
兵
典
内
出
分
利
前
劉
力
加
動
化
北
区
十
千
华
南
博
原
县
口
古
台
史
司
合
吉
同
名
后
君
吳
周
命
和
唐
嘉
四
回
国
國
園
土
在
地
城
基
堂
報
士
夏
外
多
夜
大
天
太
夫
奇
女
好
如
妃
子
字
学
學
守
安
宗
官
定
宮
家
宿
寶
寺
小
少
尔
尚
山
島
川
州
工
市
帝
師
常
平
年
广
府
度
康
建
式
张
張
影
後
徐
德
心
志
忠
思
情
想
愛
成
我
戦
戸
所
手
拉
政
教
文
新
方
族
日
昌
明
星
春
昭
是
時
景
曲
書
最
會
月
有
朝
木
本
朱
李
村
来
東
松
林
校
桥
梁
楊
業
樂
歌
正
武
比
氏
民
水
氵
永
江
沙
河
治
泉
法
波
洋
津
洪
流
海
深
清
港
湖
源
溪
漢
火
無
版
物
特
犬
玉
王
球
理
生
田
男
界
白
百
的
皇
目
相
省
真
知
石
研
社
神
福
秀
科
究
空
立
章
竹
第
等
紀
經
羅
美
義
老
者
聖
育
胡
自
興
良
色
花
英
華
葉
藤
行
街
衛
西
見
親
解
言
記
語
論
语
谷
路
車
軍
通
道
郎
郡
部
都
里
重
野
金
鉄
镇
長
門
間
阳
阿
陈
限
院
陳
陽
雄
集
雲
電
青
音
風
飛
食
館
香
馬
駅
马
高
魔
黃
黄
龍
龙
龸
ꞌ
！
（
）
，
－
：
～
##i
##r
##e
##m
##b
##k
##h
##n
##y
##o
##s
##t
##w
##d
##l
##u
##a
##j
##о
##д
##х
##и
##л
##а
##و
##ز
##ه
##g
##p
##x
##0
##5
##v
##7
##1
##8
##c
##f
##q
##6
##4
##2
##9
##3
##ᅡ
##ᆫ
##ᄉ
##ᅥ
##ᆼ
##า
##ล
##ช
##น
##ต
##z
##е
##н
##щ
##п
##ц
##р
##с
##κ
##т
##к
##ン
##ス
##タ
##м
##ы
##э
##τ
##ı
##ה
##ל
##ו
##י
##ם
##រ
##ក
##ន
##ា
##ν
##ω
##α
##ο
##υ
##у
##º
##ᅧ
##ᄅ
##ᆨ
##ᄒ
##ᅢ
##ด
##ว
##ส
##ь
##ε
##ч
##в
##я
##ᄃ
##ø
##æ
##ش
##م
##ᅮ
##ᅩ
##ᄌ
##ᅭ
##−
##ב
##נ
##ᄑ
##ᅵ
##ᆯ
##क
##स
##न
##г
##せ
##ん
##へ
##い
##ħ
##ə
##ח
##צ
##°
##ட
##ை
##б
##з
##ʻ
##і
##ɾ
##ᄀ
##ო
##უ
##მ
##ი
##´
##ᄋ
##ே
##வ
##ி
##ʿ
##λ
##ξ
##ι
##ि
##र
##ः
##א
##ת
##ł
##ш
##ß
##η
##ς
##ل
##ص
##ي
##ာ
##က
##ပ
##မ
##း
##ʼ
##ո
##վ
##ա
##ւ
##া
##হ
##ি
##ন
##ী
##∈
##ɑ
##ト
##ラ
##イ
##ア
##ク
##ル
##ρ
##σ
##μ
##ъ
##ا
##س
##ت
##ن
##ی
##ग
##ण
##シ
##ー
##ر
##ா
##ன
##ல
##ᅪ
##ᄇ
##ソ
##モ
##メ
##キ
##リ
##カ
##ल
##म
##त
##מ
##ס
##ッ
##マ
##յ
##ս
##ե
##ր
##պ
##տ
##թ
##ն
##×
##ј
##テ
##ィ
##ᆷ
##δ
##द
##ा
##ර
##ද
##ව
##π
##χ
##ᅲ
##ᄆ
##セ
##ற
##ப
##ள
##θ
##ح
##ہ
##ร
##ะ
##พ
##ธ
##จ
##ง
##ค
##แ
##ก
##ข
##ม
##ج
##ع
##™
##ى
##り
##う
##の
##み
##こ
##と
##บ
##ท
##เ
##อ
##ย
##ห
##د
##ћ
##ŋ
##コ
##フ
##ी
##ю
##ق
##ة
##ן
##ാ
##പ
##ി
##ല
##þ
##®
##غ
##پ
##ヒ
##ハ
##ʷ
##ह
##ो
##य
##ᅳ
##ᄂ
##ب
##ไ
##ಾ
##ಕ
##ು
##ャ
##श
##ป
##โ
##گ
##ெ
##க
##ு
##ம
##≥
##ᄁ
##る
##っ
##て
##լ
##פ
##ט
##හ
##ෙ
##ා
##ග
##න
##¼
##ð
##व
##ד
##ק
##←
##ब
##→
##ა
##ტ
##ま
##く
##ᆸ
##±
##ʒ
##γ
##φ
##ම
##ත
##ك
##β
##ف
##န
##ਾ
##ज
##¢
##ז
##ר
##ᅦ
##த
##ய
##ɨ
##は
##ɪ
##ˈ
##ɛ
##ष
##²
##ζ
##ː
##サ
##ж
##স
##য
##ে
##গ
##կ
##ე
##ს
##რ
##ბ
##ꞌ
##ک
##ツ
##エ
##£
##よ
##ヘ
##ന
##ത
##യ
##മ
##œ
##ש
##ᄎ
##ᄐ
##ʾ
##ர
##ম
##ந
##ᅴ
##വ
##ം
##ʔ
##ट
##ල
##ロ
##オ
##ナ
##ミ
##か
##ら
##ᄏ
##đ
##ᆺ
##³
##た
##ප
##ය
##チ
##င
##ေ
##ث
##ф
##ニ
##ヤ
##भ
##ワ
##ュ
##ര
##േ
##ʰ
##ʃ
##ء
##ు
##ɔ
##ᅨ
##प
##ச
##ᅯ
##ക
##ᅱ
##ᅬ
##ศ
##ำ
##★
##ի
##ᄄ
##ᅣ
##ӏ
##כ
##な
##≡
##ط
##ध
##½
##µ
##ウ
##レ
##ნ
##њ
##ದ
##च
##գ
##थ
##⅓
##そ
##き
##র
##ψ
##ノ
##≈
##に
##も
##ක
##ರ
##ち
##ג
##ℓ
##ʀ
##↔
##တ
##ক
##െ
##☆
##し
##れ
##け
##ड
##є
##ろ
##¾
##ল
##∞
##ლ
##დ
##ע
##ಸ
##ೕ
##↑
##خ
##ვ
##す
##さ
##ʊ
##ర
##∗
##հ
##ɣ
##দ
##শ
##ব
##あ
##ತ
##ಗ
##ရ
##ವ
##մ
##ョ
##ホ
##₱
##₂
##ム
##え
##ស
##თ
##چ
##～
##ذ
##ख
##を
##გ
##÷
##ᆻ
##ত
##জ
##ほ
##ട
##め
##ひ
##♦
##¹
##ふ
##ස
##প
##ケ
##ɡ
##€
##¥
##む
##⋅
##お
##ನ
##ʹ
##ض
##ʌ
##つ
##ゆ
##ಮ
##բ
##ց
##ᄊ
##ʽ
##≤
##─
##ª
##ƒ
##©
##ք
##դ
##や
##¬
##♭
##आ
##№
##₹
##♠
##●
##━
##∨
##♯
##│
##अ
##⇒
##he
##er
the
##in
##on
##ed
##an
##or
##at
##es
##en
##ar
in
##al
an
of
##is
##it
##ing
##as
##ou
and
##ic
to
##ion
##re
##om
##il
##el
##ent
th
##le
##st
##am
##ol
##ad
##ac
re
st
##ur
##et
##ot
was
on
##id
for
##ir
##ow
##ig
he
##ec
##iv
19
##ut
as
##ly
##ay
##ers
pr
##ation
al
##im
##ter
is
it
20
##ch
##ith
be
fr
##em
##us
with
##ist
wh
at
##os
##op
##and
##th
ch
##ce
##ul
that
##ag
##ct
##od
##ver
##un
##oun
by
con
##her
his
un
##um
com
##av
##ain
##oc
##est
from
##ap
de
se
her
##ess
##ld
ne
##ov
tr
ar
##ab
##igh
##all
##ian
##ak
pl
##ill
sh
le
or
##ies
##art
ex
##if
##ard
##ip
she
en
##ia
##ity
##ate
##ber
su
##our
br
sp
##ant
##ort
201
##ud
##se
##og
##ight
##gh
##ack
##ell
##ie
you
##ok
gr
##ust
200
##ere
##ich
cl
had
##ear
##ated
are
##ive
##ast
##ound
##ge
not
##ect
##ore
##ong
##ary
wor
##ish
me
##ial
were
##fer
##ould
##ment
##pp
am
##ine
##ame
but
##ue
##ave
##ough
whe
##ib
this
af
comp
##ost
##ub
##der
18
ab
##ces
##out
go
sc
mar
##so
my
new
##ical
##ions
##end
all
##hed
##own
cr
##ik
we
man
ad
##ome
int
which
##ous
##pt
play
##uc
##ks
also
do
##ign
one
##ass
fir
##tern
ser
##iz
##age
##qu
##ord
##ure
they
him
##ide
##ire
ac
car
out
col
res
ag
up
ro
have
##ice
sa
dr
##ace
kn
first
##tr
us
inc
##per
pe
##ans
tw
199
fe
part
##ther
comm
##ang
##ook
tim
who
##ied
can
##ember
##ond
##one
has
##feren
##act
te
##pr
their
so
##man
##orn
cent
after
##ach
year
##ican
bl
##aw
##ory
##ict
ind
co
##ind
##ater
##ational
off
##ations
rec
per
its
##ath
##amp
coun
##land
rel
##ally
##ult
##ree
app
ev
##ick
des
im
over
##ens
there
dis
##ug
amer
been
no
when
referen
##ite
##ry
fl
##ople
fil
sch
other
##ition
bec
jo
two
##ile
##ff
str
references
par
##ade
into
##ose
pro
##ited
##ates
##uct
act
198
##iss
##ail
##way
would
##ward
##itt
##oll
##ence
##ance
##ake
people
ed
##pl
##ild
time
##ents
##urn
##ely
back
##ool
film
ph
pol
##ors
##les
##ey
##int
##ings
##ivers
##ubl
sec
qu
##ty
##lect
ass
##00
dec
form
mus
##ike
##ock
pre
##oss
##oot
##lud
american
wr
##old
##we
##able
thr
##ft
about
may
##ra
fin
reg
##wn
##ood
##ep
197
##ball
##ase
##ogr
##orm
##io
lin
gen
what
then
eng
includ
##ah
again
some
##ro
more
sm
em
##az
##uring
art
bu
##ased
war
them
said
did
##eld
school
bet
gu
cont
bo
will
serv
work
under
##hip
how
##hn
##ics
##other
ear
##ason
gre
dist
univers
min
sy
##als
##air
196
hist
pres
##port
if
##gan
could
##ont
##ished
##outh
only
po
like
nor
##ious
world
##au
see
publ
##vel
##aus
cons
acc
##ale
##ision
foot
just
loc
##ton
##ife
##ily
##ett
##ury
during
##anc
##ix
where
##br
through
med
than
char
##let
##fore
##olog
##ral
national
att
stud
ma
prod
##ier
##pen
##oth
##ames
university
##cc
sl
##ons
found
united
any
17
rem
##led
team
mov
##hes
air
##ince
194
##oup
##tain
most
inter
##ists
##ank
el
elect
before
hand
##ouse
right
##ery
195
sub
##att
fam
##uary
arm
est
made
day
high
head
state
ever
down
look
##ev
##elf
inst
years
second
end
sing
##ternal
liv
football
spec
##son
bar
well
city
##ating
##form
south
sur
##ph
##ann
born
##hing
##ollow
record
pop
trans
##ween
season
##irect
##ri
three
alb
now
between
##ork
bir
wom
def
##ather
call
##gr
follow
direct
states
later
win
##ped
gl
bel
##iet
distr
prov
mon
##up
sw
external
met
links
##ities
gener
while
##enn
cap
players
nov
##aph
10
contr
la
##ative
##ina
ter
##ement
##ys
long
ret
##ular
##ked
know
id
##vern
##are
north
16
group
##ual
rev
soc
inv
193
cre
##ink
rele
mem
list
house
##ower
music
century
open
care
govern
##ts
15
num
life
##enc
ge
##til
##lish
ann
want
compan
lar
song
being
though
##sp
##cr
john
four
against
album
such
##ise
ger
##ific
##iam
jun
dep
##ob
used
pers
##ove
supp
che
award
##ott
mat
##ional
##ull
##oy
##und
around
offic
way
##ject
##ague
##ths
##ield
##ning
##ric
##ause
aust
##ley
12
##ope
known
own
both
your
county
history
ob
series
192
show
bre
##ident
many
sk
lead
##ures
start
ey
death
add
cur
mod
##ins
intern
##erv
these
oper
##els
##ew
cour
jan
until
district
##iver
champ
##its
har
class
even
##ful
commun
##ern
##ee
run
##aking
prof
get
202
build
town
##iew
##ograph
##uss
191
cor
family
old
brit
main
mu
mil
polit
##omet
##str
##ese
##velop
league
##xt
wal
every
##0s
since
##ll
book
sim
became
##red
##bers
##uction
aut
tel
cal
##ior
leg
11
dem
hel
##ism
develop
red
estab
miss
##ister
left
##ark
chr
club
turn
sign
##ever
west
exp
ju
women
##eng
law
div
##ner
public
##co
##ently
won
including
##ourn
##ized
king
orig
star
##ural
name
rece
german
##amed
##urch
##ash
early
colle
rep
##ments
bus
living
still
because
international
##ets
child
##ange
place
land
##ling
sever
appear
##uck
14
##ived
progr
##iev
##ai
point
13
##ined
##ted
dif
av
##ene
##stem
##mer
##augh
##ians
origin
stre
##osed
game
val
design
say
##by
##hen
##ually
home
aug
films
var
number
##inc
austral
person
york
oct
##ution
same
system
near
good
##ble
took
del
best
march
need
ke
port
##ible
former
##yp
sept
conc
##ient
organ
champions
##ae
##ute
prot
pat
inf
align
pass
bas
british
called
##oci
area
##ology
company
##ica
however
career
august
last
ins
##iter
mid
##get
##ert
vill
each
ir
associ
men
##ek
mag
september
eur
following
somet
maj
prop
##ober
##eter
ang
contin
return
government
ve
games
##ised
##ody
##ren
tre
general
##ium
ra
october
##ung
eyes
ep
based
another
##ane
several
arch
small
repr
black
##ced
january
center
##bert
apr
played
june
released
college
##min
educ
feat
much
far
##ants
make
##ages
mill
births
members
##ady
july
##ital
english
order
hum
resp
canad
##ained
21
should
stand
camp
april
##ief
ste
##yl
adv
set
sum
##cept
arr
##ives
along
##aving
use
##bs
profess
conf
popul
line
##ime
##ying
##ured
2010
##ench
east
never
thir
held
november
##ows
countr
here
band
##ected
top
think
##ues
prom
major
rest
away
program
##uced
##ider
descr
histor
##ired
result
##hern
real
##erg
##ched
##ony
began
##ret
december
side
party
sen
##aces
##aced
going
##self
##uk
great
##ided
##yn
church
rad
##mp
take
##sh
water
##icip
tit
##ator
##gin
##yle
000
championship
manag
complet
2011
support
190
##por
##ices
##ued
##ats
eff
##ection
##ittle
##ially
christ
very
telev
phil
ii
park
hal
##ilt
member
rail
president
sport
##ote
station
##ax
2008
tal
##ize
vol
little
mo
road
power
compet
##ility
rom
2012
europe
vo
##iness
mark
ec
kill
##ines
let
##ography
##ience
television
##apan
lang
final
geor
too
2009
##ically
spe
short
those
local
cle
es
repres
night
##ended
occ
##aint
febr
sil
february
pa
tec
2007
##ison
##que
##ried
ext
##oph
##olv
island
japan
2006
##lex
2014
##ger
mal
##app
river
##che
##oad
2013
six
##ata
sal
beh
track
moun
light
face
##ama
post
ant
pos
youn
came
batt
189
ref
##lished
##ode
fre
25
white
##eal
son
father
2015
prev
##aster
french
##iting
five
named
##ately
##ne
2016
##ana
fur
##onom
##akes
##ival
vis
service
##ored
30
##ness
##ips
##ham
fri
represent
disc
present
##bo
press
##te
report
##ms
room
conv
##ains
went
##eder
nat
##ford
##med
gir
william
##ds
##be
##ides
##ten
##ention
giv
##day
##ards
few
##ps
##gest
##aining
established
event
russ
friend
cast
##atch
langu
vict
single
sol
##ared
##ster
ll
thought
squ
located
business
age
our
dav
died
ital
vers
techn
typ
bi
##col
describ
2017
##thing
##atic
deb
super
milit
auth
building
##iety
##elt
2018
next
field
cond
##ged
due
##for
##itions
##press
curr
bur
lab
roy
hon
cup
tell
##ara
depart
##ars
find
sn
army
division
##me
something
children
pal
ele
lond
san
population
differ
mor
sound
hol
##alth
rock
built
stat
london
succ
within
tem
round
times
third
##ino
hard
come
2019
got
188
2005
er
##adem
love
style
expl
net
##ified
eas
looked
grand
engine
resear
cult
body
large
oly
ca
##idge
fac
player
put
asked
enter
tour
24
##ought
success
ap
vi
official
olymp
fact
gold
counc
##ones
##bur
ent
##ress
##osp
village
##ille
stop
##cl
instit
sat
mer
published
girl
association
##ission
##nt
repl
##ency
species
served
without
indian
##ron
li
feel
proc
##omin
##han
project
##ipp
collect
started
moved
non
wind
##ches
2004
##res
##ring
vide
front
received
##ways
different
conn
22
det
wa
country
nort
##ma
hold
command
court
##fe
equ
imp
does
read
education
ill
const
don
special
mun
academ
hall
##aim
##umb
poss
2020
##estern
help
vir
2000
mich
terr
##aff
accord
military
brother
street
consider
exper
opp
once
##ani
central
mom
door
##oke
##den
dou
requ
council
pur
mother
km
alth
works
addition
##ached
iss
big
##yr
186
##ler
journ
although
male
author
cross
que
aff
led
fem
why
toward
23
bill
cam
crit
common
level
among
mur
further
##umn
fun
ten
##king
lim
cover
##side
young
##rew
lo
social
sout
##ization
##acter
187
##hel
##istr
##oint
sett
tot
rich
sev
development
dam
##ality
union
sit
story
royal
lou
di
late
nav
chang
week
##na
constr
##itor
dev
half
uk
base
research
##ively
perform
director
##lin
2003
toget
together
trad
mot
republ
free
having
summer
ren
##ting
##ald
fire
language
saw
god
office
according
human
sel
epis
mc
inform
##af
attack
fall
##ien
sold
full
lat
announ
##iod
mass
##ops
##ument
##irc
##par
include
cer
##esh
2002
deaths
community
broad
original
je
acr
video
described
himself
prim
wall
jack
tur
##itten
voice
jud
england
behind
surv
calif
wanted
##ming
turned
##ico
2001
26
roman
included
californ
political
##ably
period
live
australia
##ky
muse
lost
import
civ
western
green
##ground
oh
james
seem
cat
california
days
opened
knew
27
activ
intr
mean
often
##ned
given
##ges
##line
hot
28
incre
econom
election
100
##aken
ur
million
den
sent
sam
hands
across
must
radio
##tt
felt
##wer
force
cas
department
bor
##ka
allow
test
##ius
bg
dark
arg
wood
fight
##ament
mart
production
songs
##uel
circ
mad
thom
##color
##rop
init
fell
##ances
appro
step
grad
##ael
keep
museum
coll
bgcolor
##work
##arr
heart
medal
##oved
character
##ney
tom
##ots
bal
society
believ
making
previous
control
records
cy
hor
ber
sun
written
space
##ither
woman
ground
2021
##ha
##ecut
france
##ape
david
places
region
admin
meet
george
title
##ipt
paul
site
hig
australian
indust
##ibut
##ature
hy
low
alm
produced
effect
gave
rout
##oor
told
politic
awards
india
refer
##dle
pet
##ours
##eth
sour
past
##ays
professional
der
##acy
civil
1999
hill
using
mr
board
##cer
bed
##less
29
ham
heav
franc
establish
total
involv
##ze
lib
##ising
feder
##dom
##ened
185
become
##emb
pan
railway
process
role
los
health
secret
struct
mult
trav
worked
less
##go
european
priv
really
##ru
interest
might
gun
##lu
##ocr
##li
pap
married
##empt
##field
services
chair
review
invest
debut
##epend
plan
robert
##ilar
##used
##ship
canada
host
america
##ogn
##rican
enough
independ
##anish
##omb
##itar
dest
sure
bad
##ya
flor
ran
committ
phys
created
##ve
##ners
announced
ok
returned
various
##aughter
canadian
pract
##ploy
seen
journal
phot
albums
northern
ver
##iment
comb
anim
##aut
battle
continued
mel
scre
version
##ending
others
police
##ago
mind
1998
books
case
appoint
##ush
perfor
introd
tv
##cast
science
commission
administr
position
hen
alex
##ference
mountain
view
##amb
##ead
modern
claim
match
20th
chief
performan
draw
close
almost
cop
municip
##ple
##ech
31
mont
exc
##aps
hur
tor
sus
##ox
princ
webs
fest
mary
students
##of
chap
chin
##ville
news
events
du
##gar
##ania
pain
enc
rac
ide
##iction
always
prem
similar
key
clos
minister
better
blood
popular
kar
defe
##cent
##oney
##iding
##ories
joined
mac
1996
working
et
##cher
bank
##ena
ru
sem
##ction
information
wife
voc
##ca
##reek
##iff
##xim
liter
grow
##ological
1997
ple
things
partic
race
southern
##ket
tex
mex
rob
##ators
##ivid
blue
hair
##arch
##bor
pul
germany
quest
hous
strong
background
text
hit
express
angel
kingdom
alumn
##imin
relations
ball
soft
50
examp
jose
doc
##nd
nothing
##stand
sex
inside
##itect
offer
fig
coach
tou
begin
sports
dut
##ump
##aves
hap
##raft
##ids
fif
fund
fa
architect
nec
buildings
jew
give
assist
teams
##olic
attempt
japanese
impr
least
produc
##ption
cost
wil
##burg
soon
gar
wrote
brown
ident
eight
website
184
##aught
##ount
italian
alumni
middle
##ready
writ
release
corn
ath
##ele
individ
lake
democr
##aft
##utes
##ki
##ense
1995
already
hosp
##olution
ps
##ida
playing
##ering
##iers
##hib
boy
important
thomas
cut
##itz
product
bay
ship
schools
caus
washing
cho
taken
##bed
china
1994
##imes
scott
anything
hu
1992
founded
compos
particip
appeared
aver
##wood
upon
##erc
constit
scr
african
coast
##mar
##ij
quick
artist
##ams
cath
personal
media
##uce
mix
magaz
appl
reached
chart
elected
footballers
artic
republic
parl
able
thing
##to
##iec
rh
hun
stage
notes
deep
recogn
esp
historic
##sequ
province
aud
mic
##itch
##aged
dead
##cover
##gy
##ili
wat
ho
##iled
michael
basket
stay
promot
instead
##oming
##head
washington
russian
considered
desp
course
happen
birth
foc
data
theat
##uation
transport
##igr
color
fail
yes
points
arts
lear
cand
rul
##idence
##here
either
##isc
recorded
ben
##lement
seven
viol
charles
ol
tradition
##ishing
40
1993
gall
##ength
tourn
followed
obs
##ves
moment
athlet
libr
fore
guitar
daughter
done
sea
shar
looking
prob
##odes
directed
paint
particular
laun
earl
agre
pen
van
mater
institute
##hem
proble
cell
reason
##erson
pot
areas
##oul
ha
academy
parliam
groups
arms
influ
table
reb
pun
##airs
1991
##reg
tax
##ari
relig
1990
##urs
break
bul
killed
instr
deg
eastern
clear
aw
novel
##ification
sir
female
frank
##berg
forces
##oon
execut
companies
##ucted
parliament
christian
exist
results
words
taking
louis
treat
##mon
change
pay
##overs
kind
outside
##ano
hers
env
market
ul
completed
##nes
##ex
183
##aign
hom
sand
box
peter
##isl
lower
qual
type
basketball
victor
##itive
tar
centre
adm
virgin
##ala
food
fut
fort
dig
entire
signed
current
##ift
episode
##cle
##olf
##iving
bow
today
bab
rank
term
##rica
appointed
deal
training
##anced
closed
##craft
fle
meth
##ements
paris
months
lu
##nel
formed
ans
ach
campaign
finally
construction
contract
kr
##tered
##gress
esc
##ique
hung
fing
employ
above
committee
bud
hospital
##etting
os
penn
carol
kh
##ke
olympics
##ban
card
festival
colon
lik
##ga
swe
route
##anch
hop
developed
##ker
##ander
private
##ny
hear
pick
##aker
finished
sle
chinese
##lo
avail
1989
doct
spanish
mouth
dre
interv
richard
roll
originally
performance
cens
entr
access
1988
despite
vot
##ota
##wr
##ude
register
artists
comput
##ume
##fl
forward
network
##ona
forest
move
plant
rights
master
someone
squad
slow
henry
saint
yet
regular
##band
lord
separ
##ensive
leave
model
shot
burn
eth
anc
gradu
study
sym
africa
watch
reported
##uf
##ergy
cit
##ta
op
##my
hell
sug
##ula
##ston
##ees
##iple
discover
##enth
##ella
earth
proper
studies
##iron
ven
##ipped
texas
anal
action
fer
##off
assemb
##uit
example
##ba
heard
zeal
emp
chann
floor
die
trying
tournament
sud
drop
##ceed
lay
gard
##idae
brought
aircraft
sar
everything
ye
word
##anger
staff
##wor
medical
smith
championships
eventually
professor
##icket
fav
catholic
##ication
kore
##sel
liber
##edy
maybe
attr
natural
##over
mir
stations
bit
ox
polic
money
reserv
##bc
material
average
running
transl
##ita
ire
jer
luc
##ises
federal
1987
##uth
captain
##ination
zealand
rather
capt
feet
##acher
ce
goal
tried
##aries
features
wid
available
certain
decided
else
lot
##omm
throughout
clim
##fully
acqu
added
##medi
##asc
matt
##ja
lie
culture
##ii
scient
broadcast
##ym
##ych
sant
1986
suggest
##gn
##dr
ireland
environ
magazine
mos
iv
section
##icated
francis
hus
range
##ateg
1984
conference
quar
baseball
remained
chic
writers
##apt
breath
swed
movement
coming
##ded
singles
loss
##atory
minutes
##atives
fly
norm
technology
##ini
library
musical
##men
bat
census
##ential
method
plann
officer
actress
inn
##pre
##ura
pict
nod
##9e
conserv
bish
usually
wild
1985
##apped
accept
needed
leading
imm
seat
##ck
log
capital
fair
guard
##oviet
governor
peak
##ases
friends
bridge
fourth
##action
decl
##itted
doing
kiss
legisl
plat
independent
morn
##hold
##urity
##elled
performed
singer
##aching
abs
##itting
##roy
35
##ada
self
##ability
gh
says
designed
##hood
sor
##omp
theatre
1980
##de
##fect
jul
probably
inj
##rael
currently
respons
##za
senior
placed
##osh
##ado
dom
##lands
silver
lif
cab
insp
##ugg
##ilities
neg
turk
studio
shows
brand
row
connect
ice
thre
management
leaders
##istan
competition
possible
future
deter
sister
ord
trust
##eks
poet
except
foreign
sometimes
soviet
speed
hours
rug
182
congress
1983
pac
includes
##ested
reading
##istry
stone
talk
israel
##enty
towards
mission
document
braz
stood
idea
leader
related
georg
##asing
politician
##riate
dar
subsequ
mess
mach
navy
##ights
ban
trib
piec
olympic
collection
##era
##ockey
involved
##iation
energy
happ
1st
##ola
largest
listed
exhib
wide
month
prison
achiev
travel
nomin
touch
##uff
ros
1982
environment
##elling
anti
writer
neigh
##idents
##ores
181
pulled
##aches
##agon
prior
##ette
remember
##uke
edition
##play
subject
understand
queen
##aur
##ificant
missing
respect
mexico
virginia
famil
##ray
scot
object
chicago
heavy
##back
morning
##enced
ov
21st
grant
beginning
primary
atl
32
size
##ades
candid
organization
tenn
valley
##ios
narr
bring
##ications
spir
gal
beaut
airport
1979
investig
stev
##yan
significant
changed
tun
surf
assembly
chall
winning
beg
bene
featured
##igan
systems
establishments
awarded
actor
##ends
herself
edward
seemed
##ole
susp
writing
pil
minor
espec
wonder
date
transfer
##row
brazil
drum
##ushed
introduced
##ining
45
security
rap
screen
##la
##ein
1981
meas
italy
gas
1972
below
quickly
sav
commerc
especially
fill
consist
diff
cred
mount
answer
question
count
honor
relationship
##oat
families
corpor
coup
replaced
effort
schol
trade
observ
countries
critic
##ales
eye
standard
##ris
1976
whole
irish
19th
degree
##oma
stra
##well
lived
notable
occup
glob
pred
psych
##rd
amb
jim
industry
domin
martin
##oken
extr
shr
##ites
regional
##tained
vocals
##ask
1978
thus
##kn
##rain
bes
immedi
drama
longer
##ffer
fine
##igned
historical
##antic
empire
##olk
##bb
via
spring
1974
##room
higher
und
pack
hockey
stated
producer
beat
joseph
##iana
##lam
train
alone
unit
units
##ulty
1975
smile
##uz
getting
1970
fc
rose
od
sort
##acters
characters
1968
occur
organiz
##istics
quarter
manager
bass
rugby
leaving
##ophy
native
spent
1977
whose
ash
shoot
##iences
florida
scored
financ
##board
passed
channel
kept
##use
parts
##pper
elev
bell
operations
wing
means
na
##ylv
expat
stad
##tim
surr
##ufact
provided
glass
##iano
manufact
regard
columb
##fort
oppos
murder
##tar
##oo
gone
previously
les
##hic
raised
##abor
haw
youth
square
1973
believe
tro
##hest
##essed
##ocked
girls
prince
destroy
bott
nick
myself
skin
winter
doctor
economic
1945
secretary
il
arab
length
parents
##eople
allowed
cele
value
newsp
apart
##ients
##ibution
contribut
owned
newspap
cricket
##ylvania
decision
1971
36
true
sources
patr
focus
##oring
opening
approxim
earlier
angeles
##west
commercial
industr
fear
ended
vehic
doub
student
seasons
selected
premier
##ails
##ware
##rian
60
##anda
##iption
##gian
foundation
##porary
##ension
complete
ba
##ests
dance
greek
##har
mec
carl
##owers
wales
gaz
da
try
surround
sens
##eg
180
itself
names
33
dun
husband
cold
1969
operation
##iger
fast
celebr
individual
nine
wear
complex
actually
cust
page
chem
##sc
democratic
russia
active
mut
##d6
limited
additional
cd
dog
paper
islands
spl
municipality
executive
ton
carolina
##oe
##istic
##irt
##ector
editor
##ging
##ria
farm
plays
##ening
##lor
penns
##cy
##inct
##arian
ray
meeting
ut
structure
saying
##abit
##azz
ships
500
interview
##oles
mine
##hire
ess
ram
##ects
##ession
##ias
pull
##riage
##orpor
##isher
##ipl
pennsylvania
1967
##arily
##ols
##usion
purch
walked
pret
teacher
path
note
princip
moving
surpr
cultural
purp
ta
az
makes
##inn
##iling
##ims
provide
##hi
00
1964
##isk
##iced
##ping
##ua
frequ
##dy
location
personnel
anth
##oper
lips
##selves
rub
engineering
township
lines
entered
lee
elections
sleep
##ustr
rural
ens
memor
##ule
dont
bon
electric
disp
saf
weeks
altern
dyn
nearly
##och
peace
concern
emerg
legal
traditional
##uments
runs
##ero
matter
##ental
rain
emb
computer
okay
charl
guy
dutch
web
household
lady
labor
179
job
castle
hope
defeated
##ibility
##ati
##ires
##ding
##rect
spain
spr
sudden
houses
##aming
2nd
starting
bishop
forced
ful
prize
hund
##oz
philos
onto
attended
takes
bag
happened
mention
mah
movie
##ror
older
stopped
numer
source
goals
twenty
chest
##onic
##heast
65
standing
pak
##iel
regiment
##ko
1965
##where
##ulation
diffic
sched
chapter
revolution
##inet
lack
##road
##iant
34
##ingu
jewish
bound
##iously
philipp
successful
bob
1966
property
expatriate
practice
1960
##hol
hundred
scottish
brig
footballer
border
stadium
whom
nature
genus
ah
cry
bron
phone
appr
##ersey
opt
##onstr
attention
suc
annual
jac
stock
mcc
asian
stars
online
reveal
##ques
administration
##com
justice
##unt
##het
issue
bib
##bridge
dani
##asion
covered
ak
##ils
##ansas
prime
drive
cases
religious
initially
carr
ancient
##chen
speak
##itors
print
contem
suffer
fiction
brief
##iy
ly
issues
##cel
discuss
##ously
##ocks
policy
##onse
approximately
cities
matches
cham
##mond
launched
highest
##wan
overall
demand
walk
assistant
##oid
##egr
unl
hour
biography
straight
victory
represented
##oes
champion
syn
iran
highway
survey
politicians
metal
##shire
rang
termin
block
municipal
wrest
associated
double
cant
meant
theory
hotel
##itation
ring
##ems
##ef
comedy
threat
##read
##ify
##yer
##ences
tracks
##iga
##icted
gallery
nodded
junior
everyone
##ered
upper
financial
ask
##teen
din
##more
temple
bang
concept
faculty
compl
##ugu
##gl
lic
score
##aned
##ador
weap
studied
figure
##oud
pacific
##leg
##20
simp
38
generally
flight
##inal
jersey
albert
##itory
reform
didnt
trial
##ective
##uals
1944
required
1962
1963
##ira
crow
jon
##enue
response
poor
anyone
appearance
whis
multiple
caused
##mit
specific
pu
ohio
mostly
recording
37
entertain
article
kid
##icks
noted
##ightly
digital
feature
iii
holding
stories
pit
44
sense
lives
boys
adj
kent
distance
##isions
##mark
feeling
carry
commander
##awa
citiz
oil
becoming
officers
stan
mob
corps
michigan
##isters
motor
crew
subst
##iful
ott
grab
agric
yell
immediately
themselves
bost
scotland
magn
kit
sac
mechan
activities
tam
shut
neck
fingers
giving
drug
##ez
helped
rod
bey
##utions
##ux
store
belong
mayor
oce
evidence
draft
bol
disapp
##wa
imag
polish
nations
##izing
changes
##aped
##enge
search
wrong
managed
adop
problem
##ila
beach
surface
couple
exact
golden
categ
agricult
##speople
argent
rat
##etts
sab
1961
##rupt
offered
iron
jones
tree
##iles
direction
storm
ready
##50
villages
poland
1942
trail
max
bomb
ded
fal
80
exch
##bon
##aly
experience
##any
autom
brothers
ukrain
harv
custom
ign
literature
britain
##mann
winner
mand
boston
clubs
whether
##inois
abb
platform
##gen
convers
code
##achus
brook
uses
##rey
##bury
chairman
bod
sportspeople
##ss
anton
terms
parish
era
1956
cart
##ora
meaning
illinois
spirit
carried
horse
sky
pier
dim
nation
1948
##ci
medalists
contains
##iance
numerous
arrang
retired
rog
##iest
smiled
rid
programs
##nam
collabor
##gu
actors
deput
mas
mis
branch
fellow
##une
marriage
comment
cub
expand
diss
1958
corner
caught
##aka
georgia
towns
1959
cook
infant
orche
temper
cann
winners
edge
41
tall
##ros
##house
bern
cause
asia
columbia
jean
believed
architecture
arrived
passeng
##ledge
dise
medic
vice
increased
##ela
fifth
##uten
particularly
1939
minute
70
dad
creek
status
fish
eliz
spread
cin
structures
sequ
1943
##ault
dan
comes
massachus
majority
baby
massachusetts
famous
##don
##burgh
##kin
joe
prec
1940
##light
alexander
sad
yeah
reach
racing
##ucky
1941
##ali
##etic
perfect
williams
##vert
quiet
miles
1957
##bi
lem
counter
mike
1950
operated
shook
##ibly
organizations
##abeth
subsequently
42
tower
##aya
quite
shop
serving
1946
thinking
attract
create
##rid
cz
communities
39
andrew
completely
##illa
##erse
##pped
estim
window
sher
##ji
wait
difficult
percent
##eds
remain
##ogen
weight
##onia
electron
ministry
firm
victoria
##ova
tan
remains
letter
##book
soldiers
volume
##lad
beautiful
global
failed
ped
dropped
determ
oxford
swim
shoulder
##gypt
plans
memorial
##wh
kick
kenn
defense
1952
##inary
las
rate
resour
von
contact
##ih
90
##con
function
confir
thous
latin
musicians
map
thousand
cou
academic
politics
1955
income
##kins
ken
islam
indic
##ograp
ga
jr
##va
egypt
##iny
##illy
dail
freed
uns
workers
favor
ago
progress
1947
hong
scul
slowly
crime
wed
territory
fighting
yellow
physical
judge
##ysis
##stra
likely
francisco
jeff
shown
178
johnson
##isted
##down
shad
##ls
larger
##omes
claimed
recent
##mas
jackson
element
soul
mort
bac
49
urban
mathem
##emic
kong
48
##itude
grew
fix
##10
hind
cooper
industrial
sund
##ighter
##arters
beyond
concert
enj
mixed
##ato
##adel
##itan
sorry
##isation
vac
##iang
impact
adult
syd
##astic
necess
imper
suff
dur
##da
episodes
bear
problems
1954
opera
cov
supported
rand
##encies
vamp
tear
marine
maria
##wards
chance
critical
whisper
barb
reflect
rules
install
lieuten
talking
heat
daniel
##ucle
1953
##umed
64
nearby
##owed
ty
presented
scene
joint
bh
##ented
share
1949
plot
variety
appears
representatives
greater
sweet
drink
43
republican
wo
nic
directly
##win
address
eld
extended
finals
supre
marsh
sculpt
happy
conduct
##antly
piano
##ifying
##orporated
3rd
47
##unk
remaining
##arm
##ancy
jam
contemporary
competed
htt
campus
senate
latter
administrative
neighbor
rule
##uries
##hew
protect
garden
label
##ables
reception
steel
defin
##uing
forms
promin
subs
appar
earned
account
profile
newspaper
mist
solo
mit
traff
##haps
1951
soccer
appearances
mountains
agreed
kil
ker
articles
177
##aded
advent
enem
dream
windows
laugh
swedish
ts
##orter
perhaps
hang
headqu
##aud
berlin
emper
inh
waiting
warm
coal
naval
##uch
strugg
##ety
distribution
ocean
extre
kal
daily
partners
ib
simply
troops
org
wound
tay
##lict
sydney
##ns
separate
discovered
preserv
authority
##ellig
bbc
1980s
display
image
truth
danger
expected
squadron
ow
ultim
lieutenant
hes
som
laws
entertainment
##hr
pad
##cul
flag
products
benef
vote
bath
pp
kir
acting
poll
referred
legs
software
##uan
descent
pair
##uts
leon
jazz
cars
gray
1936
bibli
featuring
##aked
##stein
hurt
##thur
51
numbers
asp
recip
duke
composed
##owing
trees
electr
ther
battal
increase
queens
jes
##atively
constitu
suddenly
52
ww
##anth
description
nucle
lov
kim
##ters
unkn
rivers
cool
require
rot
elizabeth
acquired
marc
##oned
##jo
enjoy
lev
ordered
behav
46
normal
proposed
watched
##ologist
chris
##mont
founder
novels
##entr
##ills
exam
parties
affairs
cav
gab
##oster
protest
trip
viet
responsible
##greg
therefore
influence
baron
1918
sciences
formerly
secondary
hay
piece
astr
intellig
##una
recover
join
crown
75
##itage
purs
##ington
continue
bright
serb
##oh
55
corporation
##acing
choice
##zy
serve
1938
obl
wars
estate
##gs
plants
merg
shel
##oral
ka
promoted
maxim
planned
safe
##span
kel
memory
lit
##uv
korean
rome
languages
grade
repe
snow
semi
succeed
prep
please
machine
unknown
conflict
magic
individuals
##awn
ny
reserve
catal
contest
##can
illustr
pra
opport
scholars
##onto
pretty
cem
leaves
mainly
infantry
1970s
removed
agreement
##ube
trou
##ipping
korea
opportun
lock
eg
dress
emperor
moon
heritage
##olled
retr
safety
1990s
lad
supreme
##agn
##ourne
resist
##izes
charge
stephen
##enna
usa
expression
regul
1937
conditions
engineer
dipl
##ographer
wheel
##chester
nob
looks
##lers
kat
czech
populated
classical
sr
gather
##bing
equip
goes
positive
protection
exchange
broke
restr
wit
##yt
eag
##opher
drag
sig
1920
initi
##ika
lew
elements
initial
integr
fat
dor
knowledge
target
ron
capac
tight
ward
##ima
emot
nether
##9e9
e9e
e9e9e9
deputy
##elle
growing
diam
statistics
##eness
cert
##bour
surn
bronze
scientific
scen
effects
cinem
rab
situation
filled
danc
moth
##oms
fleet
##ici
##bec
quality
fresh
##iber
##iot
settlement
suit
clean
alongside
fant
flat
none
54
ira
fox
spot
closer
purpose
wolf
increasing
projects
##uated
lt
showed
##tery
candidate
citizens
issued
provides
presence
slightly
mrs
districts
ontar
aer
graduated
thin
##akh
##otten
treatment
kur
agency
##iat
bc
##bre
walls
greg
races
ell
broken
documentary
educational
ontario
sitting
holy
technical
steve
residents
perman
cambridge
##ropol
publications
restaur
##ulf
adam
avenue
tong
santa
1935
symb
##war
sin
hug
simon
fab
##wide
flying
analysis
lies
##eman
railroad
worth
consists
conver
abd
liberal
revealed
funct
robin
formation
charts
crimin
##lav
toronto
medicine
##iro
equipment
53
##stone
##adelph
##mission
coff
##ione
levels
pressure
##sen
##aging
attend
1930
##worth
##rich
respond
##resp
musl
300
1919
linear
smaller
##mad
transferred
geography
partner
##othes
intended
exactly
demonstr
dial
americ
##ensity
ability
philadelph
pakistan
1914
minnes
twice
owners
housing
brad
chamber
forg
shortly
split
controvers
jur
##onsin
wisc
labour
content
mexican
simple
ahead
constructed
vic
##athan
types
##oman
minnesota
##attle
##aven
rough
1960s
eat
vent
kitt
risk
philadelphia
lett
##oration
sites
extra
younger
56
oak
growth
ax
cancer
wisconsin
##yth
publishing
headed
officially
improv
alf
mm
pin
1933
##iser
picture
leadership
yard
netherlands
ethn
aband
arthur
deliver
alle
owner
om
cow
cycl
concentr
sexual
thick
potential
##onym
renamed
boat
orchestra
catch
advanced
##iform
destroyed
##pa
wel
##town
clar
scar
57
resident
instrument
1929
serious
bottom
folk
1928
impress
easy
taylor
##iday
bull
facilities
##ava
approach
motion
##bourne
sax
cass
finish
tennis
recognized
##hl
supposed
##anna
thank
wilson
##rel
highly
paid
1917
1934
internet
challenge
lind
brain
seg
##iring
freedom
ones
##ogue
stared
sharp
##inity
aim
mentioned
sons
pros
whate
##jan
##asty
accepted
cerem
activity
clark
##zz
males
representative
designated
economy
songwr
gram
whatever
##itzer
barr
experiment
##ashed
bibliography
spect
naz
##sey
visit
imperial
1932
watching
sales
seconds
doll
climate
composer
animal
save
58
##ushing
accident
primarily
##ailed
chur
graph
##sa
ale
boot
realized
alt
recently
sides
losing
habit
agent
frame
implement
titled
painting
andre
price
elimin
drew
slov
dub
gon
##bl
##ouri
compar
bond
environmental
ali
planning
##wise
grey
##oses
operating
buried
spoke
zone
gaze
excl
reviews
##aki
##etery
gor
condition
combined
maintain
pushed
cemetery
battalion
aid
pleas
norwe
##eline
samp
##asy
gang
defeat
##wick
damage
lor
indones
metropol
principal
disease
##hens
##olved
headquarters
gil
1924
listing
freder
prominent
horn
becomes
walking
stepped
um
trop
guest
amount
kitchen
dry
compared
format
tony
sweden
dedicated
programming
captured
needs
rein
capacity
traffic
##isa
disappear
lam
combat
participated
constant
indiana
titles
fm
fash
palace
##aga
raj
prevent
atlantic
seeing
fully
rapid
1931
jess
##owa
##uled
##fc
##ections
driver
1922
letters
challeng
settled
4th
vs
1927
##eless
independence
norwegian
drums
transform
produce
grin
empt
##fri
##sk
models
basis
animals
##car
##ram
learning
virt
resources
mile
legislative
pattern
nap
nice
rise
##aska
feed
females
kansas
59
uncle
efforts
hat
##ographic
1900
organized
##ensis
conducted
yards
divided
distingu
throat
escape
##cing
##igen
gives
harry
buck
##een
turning
consum
typically
shall
critics
##weight
##ece
entry
flood
generation
declared
theater
##ois
scale
expect
tu
##ender
fame
resc
affili
pilot
mathemat
bah
lyr
##vin
##heim
nerv
powerful
volun
##osa
##real
taught
follows
churches
thanks
christmas
institutions
hosted
pip
roof
turkey
lap
##regon
shirt
pool
gent
transportation
1921
assigned
federation
compr
##ibuted
##respond
seats
evening
vocal
nep
missouri
##30
poetry
correspond
weather
##enz
fashion
orient
basic
rear
comics
encour
column
pictures
reference
1925
hills
##osen
unable
terror
suggested
occurred
immigr
176
falls
hart
armed
brigade
##set
confirmed
dism
creation
vess
1912
votes
oregon
davis
seems
guess
killing
zh
applied
1926
nominated
##watch
##ilton
commonly
laug
##met
##oir
defend
powers
prepar
amaz
##11
archae
##fefe
##bit
nik
solid
accomp
##works
literary
lyn
reports
ways
teaching
spons
picked
orth
ross
jane
returning
niger
tai
exhibition
eric
##water
gro
##aine
brian
##apping
laughed
colorado
1923
obv
physic
ry
sword
bos
cu
por
retire
##ordin
strength
surrounding
www
sed
gate
birds
camer
shif
sixth
purchased
##asa
fought
desc
households
distinct
wet
vehicle
400
religion
ark
lect
hero
supply
18th
faith
speaking
silent
kam
sid
iraq
cris
fefefe
positions
loved
begins
hyp
##ante
classic
##aria
##onents
weapons
malays
questions
jump
intelligence
ky
d6
bodies
lewis
react
ariz
bird
guns
##orney
tenness
##aling
norway
proceed
gi
clin
jacob
##estic
divers
##je
kings
guide
66
suffered
whit
##lyn
rif
colonel
mans
wins
1916
connected
category
tonight
tells
grass
pieces
wrestling
sight
##sky
##urer
tennessee
shared
focused
##iders
##ounds
##aver
kl
budd
cad
adopted
roles
steam
dram
holly
mast
##under
##oval
99
communist
stret
pav
respectively
1915
tank
##mers
nam
replied
correct
fel
##inals
##come
weekly
territor
sell
beside
vel
##anta
1910
##illery
mosc
launch
conservative
measure
gained
attorney
southeast
pale
##ivity
##ito
##put
presidential
brid
cher
recomm
minim
mol
core
##ulated
admir
han
##unct
175
faced
wave
##unch
arizona
pir
bought
coaches
fields
ranked
##time
##edia
necessary
dal
refused
##born
62
starring
volunte
theme
ches
diplom
bowl
directors
journalist
larg
##gers
hid
##omot
wings
nuclear
##d6d6
d6d6d6
strike
##ples
athletics
pand
fred
##pton
##oured
laid
dv
##cop
aqu
joh
alternative
##lets
khan
philippines
mam
jay
calling
plate
occasion
##aints
whispered
poly
planet
bure
billion
conclud
##icient
inspired
scoring
check
entrance
turkish
vert
finn
northwest
educated
soph
painter
officials
sri
opposition
##ighth
advoc
pitt
vehicles
estimated
ble
princess
hors
glanced
##40
##azy
grace
steps
setting
widely
enemy
##kh
##otic
materials
relief
publisher
##80
##isf
##umped
facility
gets
marked
metropolitan
chosen
##12
##fr
figures
1913
newly
sounds
pant
brazilian
##mes
fit
##amin
streets
hed
hou
maryland
##apore
##chers
offers
moscow
publication
##akers
walter
attacks
##acks
hans
possibly
classes
load
largely
propos
jesus
serves
convention
reject
tas
##uous
arc
philosophy
gord
median
sunday
suppl
coffee
quebec
##inder
util
sche
##olas
regions
constitution
vision
cape
neighborhood
adapt
legend
tears
lands
##ao
alliance
granted
pointed
miller
dat
performances
alive
##onent
promotion
consult
speech
defence
vari
comfort
easily
ay
tra
expans
exped
criminal
chemical
##no
spacewatch
twel
jenn
singapore
##ved
weak
##inger
orders
reduced
nar
nich
##astr
##ovic
continues
76
hunter
trains
jews
surname
queensland
expanded
teeth
72
contain
jord
identified
holds
ni
wants
##fa
wearing
fict
versions
colonial
studios
hey
thirty
95
##lah
merch
cells
orange
##oli
ku
subur
musician
melbourne
advert
allowing
authorities
provinc
acts
warri
croat
##ishes
##pan
insur
##agu
gym
##ounts
spin
dean
phase
##ferences
singers
##19
stom
performing
determined
swiss
artillery
humans
crowd
reality
bulgar
narrow
1911
lip
##aled
ghost
details
claims
height
twelve
mall
interior
ending
anderson
dj
supporting
##stre
reaching
passenger
fu
##inton
cos
mes
shit
sust
avoid
kids
telling
permanent
kev
si
cla
150
receive
ford
pod
http
pray
injury
decor
##atures
rud
mp
77
shape
inters
connection
tow
##rence
tropical
iowa
unique
67
visual
audience
leaned
tag
finger
anne
##otyp
1908
kentucky
huge
##uguese
lemmon
austria
portuguese
teen
##alty
providing
resulted
5th
##dam
priest
empty
passing
bann
ryan
sets
write
jason
grabbed
silence
dick
lyrics
vietnam
investigation
##osis
athletes
85
##outs
##rit
americans
##mo
wish
propert
cole
shoulders
88
##ambig
chile
patrick
97
flo
circle
link
##uge
calls
bot
##ugged
63
##uther
##ilation
##olis
brun
resulting
satur
sarah
arrested
etc
mobile
accompan
properties
##uted
fan
playoff
trump
##gi
defined
damn
##umes
knowing
appeal
##ori
lincol
portray
pock
knight
##iley
actions
existing
alph
##itled
shell
wine
attacked
gay
neur
bart
lith
nag
lincoln
lane
ends
##oti
laur
toky
dynasty
covers
treas
gran
##fall
actresses
##uls
historian
provincial
theor
##acement
##etr
##bell
2022
##kee
aged
fuel
loud
##caa
electronic
cathed
images
antonio
anna
danish
reasons
thor
learned
96
ms
violence
honours
israeli
##abad
1950s
roads
wy
disambig
##ni
advis
##vi
rum
##standing
incident
alab
cru
handed
##ami
disambiguation
##iques
unlike
tone
oldest
journey
##eral
##pe
domestic
greece
ment
dioc
fans
strateg
lifted
69
##otes
dol
commonwe
waters
golf
switzer
internal
##die
tang
howard
recognition
##char
identity
creating
strange
myst
ko
turns
candidates
belg
pione
##icked
##enez
commonwealth
pear
anthony
dougl
tokyo
witness
##estab
cloth
beneath
clothes
##utional
impl
doors
locomot
##iva
graduate
programme
beng
send
armen
guards
paintings
switzerland
lan
##ivals
driving
##wich
hamilton
migr
portra
greatest
occupied
margar
##owned
plus
##load
##mouth
methods
stayed
##laim
##lines
bou
73
advant
mi
oklah
northeast
repeated
clay
tast
heads
lob
manchester
quant
##iants
##aug
##alo
situated
hungarian
bapt
buff
fictional
density
strip
allows
borough
74
chen
stuff
succeeded
pink
##friend
factory
patri
jordan
dave
circuit
nfl
knows
hip
competitions
obtained
pope
##anny
oklahoma
raf
rare
glad
ethnic
68
ern
##gas
introduction
comic
##otte
sick
##apes
bachel
trouble
##ird
gib
##oted
ambass
rib
blues
knock
schedule
sail
##erb
centuries
##ucc
rick
##ache
containing
truck
athletic
17th
chain
subsequent
attempted
stor
##eed
##15
78
multi
recordings
finding
ncaa
billboard
##agan
sector
senator
synt
##cript
##mans
bom
opin
##ifer
effective
agricultural
##icut
consequ
commissioned
fern
veter
youre
founding
keeping
desk
##gb
##sch
buy
behavior
ech
##pool
application
ride
cannot
message
##ses
87
##eller
drawn
concer
interact
banks
mississ
expansion
nad
82
##zen
stomach
kaz
##rig
communications
papers
##onian
86
alan
##eland
liver
tail
alabama
ultimately
protected
conservation
##ti
fighter
##mitted
thoughts
entirely
##cles
reaction
##ingly
attempts
fellows
listen
salt
vampire
1909
ian
1905
1906
landsc
##ries
opportunity
marie
sale
aired
dc
shooting
specif
lawyer
abandoned
arena
##ugal
##di
harvard
cha
portion
kon
signal
matthew
scheduled
examples
##18
##umber
hamp
ot
##oto
1907
managers
equal
broadcasting
recru
metres
fold
98
##orro
interp
elementary
task
starts
dod
amate
retirement
##eston
partnership
translation
sang
neither
##ologists
##izz
sv
standards
opposite
##lan
visited
kevin
##16
walker
communication
guys
universities
hits
philip
merc
samuel
##ista
bachelor
cathedral
ltd
##rad
resistance
smoot
approved
gain
seventh
explained
wealth
lists
animated
southwest
09
89
maximum
05
##ublin
nose
79
houston
gordon
dall
douglas
sty
92
anyway
nin
apartment
##hu
##idi
heavily
lank
joy
composition
duty
confeder
##ieval
pages
##icial
##ippi
##bra
flu
austrian
loan
bureau
dynam
diego
##ran
prefect
frequently
trained
carp
relatively
##view
allen
sacr
unf
dragon
connecticut
causing
prix
##ager
collected
establishment
strik
disestab
##cement
lights
pas
saturday
blind
argentina
mole
wake
locations
##ardo
phill
myth
cm
noticed
salv
##gor
##aro
louisiana
sie
string
##usted
maur
07
juan
taiwan
cabinet
##erto
84
surprise
serge
##iments
superv
covid
##agen
clearly
flash
##tering
bid
receiving
##uses
##roit
lose
06
nom
soundtr
grav
##onomy
statement
achieved
mik
controlled
##ken
josh
1904
existence
08
berg
infr
script
flow
lanc
##box
##ho
##raid
offices
##iere
cous
reign
##dd
tongue
##oslav
shock
falling
chapel
ukraine
16th
agriculture
shadow
experi
emergency
##ares
learn
excell
treaty
thats
conversation
prefer
selling
withdr
worry
##okes
selection
ug
##alt
showing
flowers
representing
sque
gene
pow
belgium
##17
##istol
hud
scholar
extrem
yourself
depress
emph
wasnt
invited
93
##cious
horror
restaurant
fuck
##ictions
roger
tend
briefly
##olished
tab
##kel
ukrainian
bush
##iliar
rising
satell
##13
harm
homes
settle
qualified
twin
##14
doubt
seed
##aux
muslim
shield
detroit
##atus
##opter
islamic
regarding
exclus
mississippi
morgan
##elli
##icate
mack
wels
frederick
failure
puerto
recon
cryst
copies
universal
hide
otherwise
dir
socorro
liqu
1901
uniform
##essions
satisf
##ads
colomb
1903
formal
flora
afraid
temperature
notice
shaped
carrying
flower
ceremony
haz
canal
applications
ideas
##oa
landing
instruct
ze
##father
crack
dinner
interested
ja
crossed
##uri
ast
electoral
coordin
apparently
rooms
amateur
bent
prepared
##rison
jaw
##iven
edited
crisis
femin
lux
index
patients
funding
contrast
request
montreal
wooden
adap
1902
advance
expedition
94
loy
entitled
hawai
stream
singing
annivers
dak
clock
deleg
butter
kelly
finds
medieval
brick
harris
billy
parks
##ghan
distinguished
pressed
missed
83
rav
contained
admitted
##eph
indigen
worldwide
04
##agues
innov
barn
converted
recall
rio
archive
charlie
nel
inhabit
fried
denmark
negative
pill
overs
specifically
chronic
##stan
upd
michel
##body
aviation
employed
rival
ted
franch
portugal
extensive
##ching
barely
translated
surg
parliamentary
vinc
profit
##illed
tort
functions
metro
evil
welsh
03
##inces
favour
##oom
gentle
6th
palm
sought
conqu
parall
alexand
##umin
surprised
desire
##odox
understanding
##western
moore
registered
##asm
bringing
injured
mental
enr
photograph
struck
consisted
##dale
margaret
##iami
anniversary
negoti
cash
torn
02
fisher
roc
institution
enfor
frag
cricketers
craft
pitts
credit
##burn
stick
canc
benn
bund
caval
ric
edin
##icide
hydr
shout
##oen
dies
remembered
##ifications
scenes
opposed
##esc
##hist
diamond
ic
indigenous
##abil
budget
gm
##eton
##rete
##ucks
stup
miami
ss
palest
cinema
cot
residence
chuck
limit
dvd
session
consecut
chec
##kshire
##utt
exerc
rolled
stew
soldier
outstanding
pig
##atherine
symbol
explos
crazy
##iller
formula
dates
pure
chose
inner
smart
colspan
camera
absol
hired
fired
besides
beauty
closely
threw
emigr
dangerous
##zh
##pers
refuge
remix
push
elder
breaking
lod
##ello
skills
cock
##uces
vik
expos
assault
##rell
derived
constituency
##oked
finishing
inaug
bord
inher
developing
occas
##hs
lying
difference
rhyth
hungary
classification
nurs
##acent
appre
nev
legacy
symph
sisters
170
courts
convent
plane
swimming
hem
licens
monument
fantasy
##gie
##ibr
bands
synd
actual
160
7th
branc
stands
objects
emphas
174
##uma
endemic
alleged
##ecution
profession
employees
desert
giant
views
finance
circum
##anne
##dered
raw
gabri
criticism
engines
tip
subd
gig
##bish
hav
mond
dublin
beet
painted
ministers
edinburgh
##grad
cord
##agh
##ladesh
tied
tamil
alfred
gam
bangladesh
decre
liked
##ulate
hyd
166
staring
param
##how
venez
furn
hook
investment
cycle
pierre
cc
decades
answered
songwriter
asks
influenced
equival
invasion
tiny
weapon
tie
##stream
evolution
arkansas
backing
lawrence
indonesia
photo
assass
##tv
##hammad
donald
carbon
##mal
##bu
johnny
##omer
boss
pel
##ologies
rig
jimmy
discovery
wedding
incorporated
consecutive
bun
medium
scientists
##bar
economics
summ
divisions
audio
##incorporated
arn
maintained
hollywood
passes
deploy
##eding
hole
unc
mining
acid
runner
##wal
resigned
productions
protein
##sex
submar
shah
1898
darkness
teachers
illeg
tomor
extension
hunting
amend
merged
##din
observed
funds
crossing
remind
johann
qualifying
##asts
proced
engineers
aftern
malaysia
contributed
occurs
proved
attached
##imb
advantage
gymn
dismiss
##issance
depend
trophy
afghan
peters
##aved
##ieved
painters
intel
unincorporated
##enh
ancest
waited
successfully
##otted
##tra
##iner
fixed
joining
importance
bedroom
tunnel
blank
underground
engaged
soundtrack
touchdown
hir
mail
promise
orthodox
##oda
municipalities
##life
hearing
slam
atlanta
romantic
tomorrow
magazines
recre
universe
expressed
1899
file
pocket
physics
bruce
device
cheek
collections
##night
yor
drawing
causes
downtown
defensive
calm
spell
belgian
##hetic
inch
asking
##heas
craw
alco
grounds
lakes
assumed
kan
assess
paus
defunct
tru
1930s
manufacturing
interpret
##ucture
##cription
underst
organisation
woods
argued
##aks
hidden
worse
##aj
counties
##veland
documents
##ycl
moths
##mm
refers
shore
##rane
explain
pse
tig
items
##ipe
##oyd
##pur
compilation
recipients
##ocol
eu
judges
junction
producing
##ven
dust
##nie
rush
##iya
cleveland
transition
##aceae
associate
socialist
finland
belief
penins
##usal
grown
nur
##gal
leads
gill
christopher
drivers
##aham
##ials
angry
seb
renew
coc
utah
marshall
affected
ranking
cul
factor
dallas
sugar
##eals
ridge
noise
gear
denn
familiar
combination
1895
cler
##orph
seattle
lean
survived
mason
pitch
liga
##lon
winds
wes
datab
##lying
helping
##oft
##do
victims
1890
1896
typical
karl
persons
##oking
diocese
##emen
rolling
sighed
coat
rescue
##udi
imposs
unus
vul
inhabitants
##ographical
guine
adjacent
concerned
##acle
gast
nord
##while
##oria
##tle
stal
##anian
pulling
voted
serbian
russell
##rees
##chi
yug
gender
##po
installed
##ailand
##ders
honour
invent
swall
##iah
vin
##ogs
1897
goods
prisoners
pseud
involving
##uate
ris
dating
164
poems
chase
users
172
kissed
romania
##oust
##ortion
rebu
##borough
gross
anch
##mi
horses
tact
depos
offensive
lud
dee
pittsburgh
pregn
adapted
coastal
stating
hunt
concluded
gest
scor
enterpr
stores
unless
isol
afternoon
carter
##etime
somewhere
anger
thailand
covering
##ui
stupid
##ayan
plain
regarded
delay
##iac
lac
disney
mud
##lusion
cave
nas
colleges
foss
monaster
##liest
accused
newspapers
saints
arranged
##tic
handle
kos
ruled
producers
venezuel
bin
capture
desper
diet
##nat
forever
##umbled
composers
retail
marry
couldnt
mathematics
charged
##ctic
##etta
apple
purchase
wounded
anymore
odd
##ando
techniques
values
tob
biggest
smooth
phen
friendly
improved
ottoman
assistance
experienced
rect
monk
surrounded
spoken
consisting
leaf
##yard
aside
thousands
##emble
opinion
destr
volley
romanian
##itely
##iti
12th
violin
##hy
manus
changing
eleven
##heless
##ext
169
singh
jake
##ras
thunder
nan
fruit
genera
norman
##ensions
##heastern
chand
manner
mps
delivered
cards
solar
##apolis
orle
veget
##ivia
passengers
og
##angel
belt
##cia
##omy
membership
13th
improve
pic
honorary
substit
doubles
insurance
167
colour
600
##eck
##ocated
decade
trem
austin
promote
tak
residential
yank
##ovo
approp
hate
gary
rhythm
facing
baltim
switch
nash
pound
shed
##rum
capable
tries
shan
collaboration
revival
168
committed
battles
abc
tack
173
##icit
##yers
testing
lon
##pson
baltimore
authors
museums
designer
discography
commissioner
guil
cs
sections
user
charges
dh
wondered
jonathan
contributions
8th
10th
carlos
##uits
campbell
enl
gardens
finnish
##aughters
adventure
extremely
childhood
expert
chanc
##chell
wore
beer
creative
graham
smell
stewart
##ontin
##alia
angl
##itals
mars
wol
hurrican
1893
orleans
compete
1892
##orus
spar
##bow
storage
##issa
slid
weekend
shrugged
parallel
bast
gw
perc
pyr
interests
infrastr
##boards
responsibility
shir
hoped
##low
lex
alice
strate
noble
overl
hab
colony
adams
premiered
kennedy
luke
##uster
courses
1889
neighbour
mirror
monarch
##ieties
obtain
nelson
micros
rifle
120
isa
displ
##olo
wire
strategy
distributed
vas
tub
photography
##ais
ages
rit
nickn
##gow
usual
neut
fasc
15th
putting
gulf
argentine
jar
vienna
##zer
artistic
eval
rating
journalists
thompson
satellite
burning
praised
andy
instruments
ambassador
1894
lion
sequence
hend
throw
rice
ceo
substant
##atically
##ading
prefecture
bog
##pass
comed
glas
habitat
routes
returns
pup
bernard
encoun
leban
gur
superior
##ye
##crib
masters
maine
##intend
zero
damaged
micr
paraly
franklin
touched
massive
dressed
cel
mak
temporary
##entially
##anz
accom
daughters
undert
worst
stages
horiz
measures
kin
liz
terminal
hob
hampshire
uss
grandfather
drove
wrapped
aware
sult
##iki
spend
burned
charlotte
165
morris
honey
##organ
relax
atm
raise
ski
800
##bal
##ront
cousin
option
describes
1885
##isms
lgb
shift
designs
pleasure
divor
162
yugoslav
sounded
chess
ivan
button
accompl
reduce
commune
##ucing
1891
willing
##right
select
operate
##enne
knees
kath
micro
eug
arrival
separated
##wall
retre
##acted
fishing
impossible
additionally
guid
kilomet
##uki
sib
movies
revolutionary
forth
wright
14th
moments
##estyle
determin
baker
agree
panel
yout
equivalent
franchise
broadway
carib
bridges
##illing
margin
250
faces
##lem
scheme
costs
math
poem
movements
somehow
##going
##haw
warren
spiritual
threatened
certainly
goth
stairs
breat
releg
9th
accur
asc
calcul
fool
suicide
fo
luck
##ashi
##cular
61
concrete
offering
resign
grim
infrastructure
historians
##lev
portrait
##aza
worried
innoc
warning
toy
stanley
diagn
lgbt
landscape
clan
juris
honest
meanwhile
linked
resolution
##itated
conce
starred
notably
01
poets
inqu
volleyball
degrees
mode
wag
scand
heaven
context
forb
crash
nazi
kum
##ski
monitor
replace
hub
archbish
feelings
##iop
severe
purposes
##issions
parent
phoen
1888
##ommod
##apy
##net
cod
rachel
favorite
earliest
sanct
##ogy
petr
mong
brooklyn
didn
reun
closing
branches
##utation
portland
##ancing
##aware
kay
benj
till
fallen
##igation
hann
knights
incumb
ninet
##aman
laboratory
indeed
frances
birthday
bra
understood
pron
tribe
##what
ng
executed
liverpool
eighth
murray
driven
construct
chick
editions
erect
locality
##tha
rar
2000s
admiral
accommod
imprison
riding
fifteen
venues
tier
renov
teach
tap
dreams
signs
##mingham
kun
##inian
territories
##agger
participate
forget
businesses
cavalry
casual
peninsula
speaker
accompanied
##oni
dear
dakota
ral
honors
##ture
robinson
brew
##olve
manh
fifa
##rett
earn
sebast
roughly
regularly
##inae
bears
springs
rever
factors
rocks
repair
soil
sul
##imate
resort
enh
quietly
grave
lig
##mat
aar
71
pian
tech
##zi
videos
bind
tea
##face
legislation
rejected
11th
cum
demon
scholarship
barry
##bach
mounted
coalition
filmography
sean
ferr
ml
determine
kate
calc
battery
duties
lung
locked
approached
analy
drugs
oblast
secure
evans
1880
##attan
normally
descend
bishops
##tress
devices
trig
azerb
studying
##ussion
##pm
congreg
convinc
azerbai
##arn
marketing
birmingham
credited
photographer
##iology
##itr
##ographics
gods
emma
credits
merchant
1887
##know
pri
dancing
1865
disappeared
somewhat
cable
##ranean
rowspan
confront
##orf
assign
##lov
##rick
81
parad
wayne
forming
persp
nova
liquid
arrest
griff
helic
stu
encycl
##attered
##ties
163
hundreds
marit
surge
pont
random
##efa
##bel
##asp
concerns
abbey
tourist
passage
hoping
demographics
overse
mood
matters
egyptian
##verty
solution
meters
##cha
##lington
shifted
tests
gently
ff
luis
##nia
##hard
##urt
saved
rico
##rome
entering
choose
marks
ownership
afterwards
1886
eddie
pharm
wre
nba
##olves
database
passion
nun
controversy
##cs
##coming
##oka
softly
charity
electrical
meg
racial
intent
au
chemistry
uefa
acknow
continuing
absor
ri
guitarist
instrumental
clothing
landed
smoke
ensure
bil
commit
isab
##kar
##asha
license
nicholas
restored
taste
cloud
symp
businessman
serbia
leather
poverty
##ophone
mediter
youtube
debuted
pandemic
knife
alp
oliver
networks
export
confused
flew
prohib
visiting
##bean
##ario
communes
warner
garr
subjects
stamp
##eenth
voices
kor
adding
atmosp
gift
constitutional
disappoint
preced
prad
shopping
medals
surren
sultan
regulations
nut
carn
friday
occupation
mini
personality
##gle
seriously
allied
##ahn
charter
##erce
iranian
coaching
##eler
159
##mus
corporate
vincent
tired
##ecess
##ilst
legislature
patt
hyper
taxa
bone
luther
##eta
vlad
benjamin
marath
##tenance
jama
agents
boats
faster
deck
begun
talent
depth
prompt
dart
##aig
surgery
##ounced
kg
tools
madrid
fifty
worship
lp
dna
##aze
carefully
##asi
policies
domain
curt
##phy
hut
toss
lawyers
interrupt
fault
trick
forty
visitors
barbara
parking
##acht
##aring
##iri
##illo
tourism
experimental
occasionally
##oves
visible
##mate
mate
yorkshire
waste
91
##orted
mitchell
1884
activist
##lie
encyclop
worksh
retain
seek
balance
bullet
##oker
len
##itable
relative
martial
1864
phr
##bul
replacement
outer
width
##alis
manga
circumst
lingu
lanka
parker
commem
practices
##owski
basin
maid
appointment
coverage
julian
sink
guilty
##encer
1861
aspects
summary
##aa
vary
patient
meat
sung
##arus
##place
dated
provision
whilst
depression
realize
dw
symphony
operational
tigers
differences
1870
fol
triple
formally
debate
sustain
##enses
represents
rip
centers
commerce
beth
##iba
alleg
employment
##estr
bak
forests
flesh
##case
operates
rebell
fed
restoration
bible
definition
progressive
hosts
serial
##mund
stress
defeating
font
##uda
losses
thorn
1881
##uccess
milan
duc
bald
benefit
meets
tib
horr
##iters
reconstr
blocks
unsuccess
enjoyed
jerry
decide
statue
blond
nigeria
choir
memories
pd
cited
withdraw
responded
mul
paralymp
lis
cypr
ghana
scout
baptist
fitz
breathing
retained
copy
existed
helen
quart
##rical
glasgow
consp
##order
richmond
boundary
missions
sheriff
##master
##mel
genre
gotten
moves
masc
1863
industries
vessels
entre
guer
jobs
channels
giants
strategic
treated
lucky
technique
mediterranean
synthes
voy
waist
mystery
accounts
nr
burst
plastic
hindu
swing
transit
nest
1882
portrayed
bold
crimes
origins
sees
extreme
marvel
##away
mills
##oba
gust
bug
victorian
##adi
yu
##using
architectural
phoenix
struggle
gap
guinea
criticized
rounds
survive
pent
##anche
maintenance
bio
hanging
##ige
adults
##encing
prote
agencies
demanded
aj
incorpor
requirements
fled
significantly
tri
peru
patrol
shakes
nomination
mechanical
jet
bathroom
organis
ports
intellect
diction
alcohol
appearing
delhi
lun
aunt
hull
volumes
intention
##yon
##imp
##cred
depending
##orship
hawaii
1862
exception
philosopher
breast
##zo
##alf
feels
archives
mold
costa
##enson
##urg
anime
reputation
forum
kw
classified
buffalo
ethan
echo
##olia
bic
ears
caribbean
initiative
photos
##ielder
holiday
false
##sters
fate
adaptation
nevada
eliminated
hugh
rou
recept
archbishop
semif
promised
markets
##60
##itched
##boy
dece
lag
##point
crystal
frequency
dogs
playoffs
##obi
kap
##yler
indians
pole
##ashing
sha
filmed
##thy
summit
indicated
##ivan
acoust
hood
##olt
##nik
powered
##bot
monster
##ml
cbs
lucas
mull
affect
filed
gau
##icing
successor
wildlife
##berts
amendment
jen
##oga
truly
vessel
susan
nebr
mig
bub
##ouver
warriors
ladies
vanc
alaska
suggests
mines
approval
percussion
peop
pine
##certain
roots
surviv
sut
obviously
archaeological
cyl
syl
jumped
sz
railways
shaking
runners
components
##ingham
rol
airlines
gabriel
clinical
emerged
ruth
heading
sigh
1920s
dy
crick
rates
scientist
witch
ns
acted
unusual
##othy
bobby
err
guar
pradesh
trading
processes
lions
##rix
illegal
suspic
turner
##fia
bacter
cliff
##usalem
imagine
voting
equipped
sara
wang
festivals
pc
rangers
##iko
vast
##ruption
paused
1883
busy
spending
##oop
wis
hein
va
moll
##estone
slovak
neil
1878
rus
##imir
collins
##antine
madison
##omed
sleeping
##fast
standings
gul
corp
heir
letting
##mill
peoples
emer
cabin
##anes
tribut
detective
harrison
voiv
blow
suffering
fabric
jerusalem
##equ
coron
depict
yam
punish
acquis
tum
bones
popularity
moder
goog
130
drinking
##inter
tyr
manhattan
alberta
waves
##ipts
rapidly
interesting
##nan
##gate
arabic
beating
##ido
##inations
scope
compre
##fare
resid
craig
representation
jury
vancouver
ip
ive
dual
157
1876
guardian
exha
##erted
slave
rag
flows
injuries
gathered
destruction
##omen
cotton
stef
instance
incumbent
chel
sporting
##aha
nebraska
stuck
processing
replacing
milk
killer
enth
155
bour
amongst
hurricane
throne
proposal
larry
##iture
requires
maritime
sentence
##iph
##enburg
democrats
daw
smiling
##igar
afghanistan
foster
minimum
frustr
advice
quad
locomotives
participation
spider
colors
dil
eagle
continental
anat
printed
supplies
devil
emily
##enda
trinity
colombia
muhammad
genes
ecc
glac
kol
jerem
##sea
tick
peer
##oca
segment
experiences
cargo
ninth
##abled
##donald
sculpture
monastery
naked
conscious
##aments
nepal
manage
exposed
##uli
prel
exit
surviving
myster
https
tribes
eating
modified
##ception
wanting
##iciency
gut
cinc
##jar
siege
adopt
longest
philippine
danny
##eted
traveled
achievement
prost
1879
denied
makeup
useful
electricity
##acts
##uzz
integrated
optim
maced
bother
lav
seeking
chi
terry
penalty
antar
##opes
loop
##inted
strongly
##otype
catherine
##yll
peaked
orn
suspended
demolished
consol
meetings
reporter
perp
nervous
signif
definitely
pon
virtual
talked
detail
dying
possibility
##ivated
##aca
whereas
mend
##credited
nbc
ralph
characteristics
stir
bristol
##iors
1860
earthqu
drunk
##ulu
achieve
indicate
leo
chal
participants
nu
amph
##nal
bench
bottle
##jab
##feld
##rets
##break
ling
##fam
timber
democracy
heb
prosp
reprod
alger
animation
vern
##icul
reinfor
beck
influential
geomet
mick
158
backed
hudson
chancell
tent
##osph
glen
sak
##hal
teleph
maps
logan
slipped
involvement
jurisd
theod
releases
##dles
das
harbor
psychology
##uka
gamb
obvious
1875
increasingly
##stad
##val
controll
immediate
tat
sebastian
trent
kirk
sessions
spaces
possess
revenue
discip
themes
listening
activists
cort
adela
1877
welcome
filip
google
hispan
decline
indoor
upgr
1871
declined
competing
montana
keys
signing
sloven
##istical
butler
valid
violent
keith
til
py
texts
copper
##mates
##mother
strict
pm
1867
##elia
sull
stones
illustrated
blake
##amental
uncertain
photographs
bru
##holder
knee
snapped
biology
##ascar
avo
subsidi
gif
sap
radical
botan
jamie
essential
stable
lamp
circumstances
voivodes
##amer
steven
##iration
sending
advertising
farmers
prove
uncom
cleared
purple
##acked
1000
relationships
celebrated
roster
oz
##hum
##lings
##enberg
stol
##essa
serie
ced
outd
simpl
murm
##25
##cling
1868
##wig
laughing
##fortun
blade
rust
fier
##laimed
claire
pere
wells
voivodeship
download
manif
vig
vegas
##vis
architects
##kov
1872
julia
##engt
anthrop
todd
##eva
moroc
belonged
croatian
preserved
perry
premiere
friendship
stem
##teenth
1874
flav
abuse
nominations
alien
poison
principles
lasted
funny
##bled
aur
##agement
voiced
mck
counsel
##kan
triang
dum
##ikh
commanded
yang
kab
##idad
youngest
##ving
##sm
gem
##lett
researchers
##aws
submarine
manor
beij
aggreg
roberts
aber
lloyd
corrid
biological
dawn
bengal
cott
##endar
##urers
##hill
godd
henri
gates
raising
describe
transmission
attracted
seeds
duo
pride
borders
protests
sic
telec
strang
sket
viv
lifetime
merit
##omon
gren
##abet
nights
sole
persian
shoes
nearest
##aco
sacred
rodrig
frey
cuba
tale
angels
ft
affair
sao
herbert
1873
uh
ht
commemor
saudi
explan
##oys
wu
##abilities
boxing
##vere
##iece
guests
cosm
competitors
tempor
recovered
recur
sank
licensed
graduating
##nell
completion
stuart
considerable
dock
outl
##oving
##isb
ost
##gart
detailed
harold
tool
aimed
wool
alpha
wer
venue
proof
##athy
##eries
##23
competitive
villa
jin
##fs
cooperation
barcel
keyboards
victim
concentration
absence
##berry
lift
sergeant
loose
blog
murdered
cincinn
shaw
remove
resemb
##folk
##inus
unfortun
shower
amy
beijing
lil
sponsored
##ju
tiger
distur
##helm
ou
chat
ferry
ceiling
##urally
156
cutting
shake
uncredited
ki
assum
trials
dennis
##brid
armenian
anywhere
lunch
acoustic
marcus
considering
deserv
1866
worn
gle
gradually
provinces
wik
##oded
monthly
##fish
specim
remar
bare
platforms
zur
##hor
ballet
##eno
screenwr
theres
##van
overseas
110
civilian
bry
vit
##acon
icel
easier
##eon
kle
discussion
700
overview
cincinnati
deeply
tales
canton
##icking
contribution
tiss
organisations
illness
legion
couples
styles
##inction
prest
cream
managing
cancelled
journals
adelaide
tul
pioneer
hence
justin
departure
eve
prol
arrangement
output
125
##keeper
entrepr
similarly
wides
funeral
scared
convicted
sne
motors
judg
byz
affiliated
iceland
simult
customers
##sed
elig
nhl
pruss
lok
councill
##aho
##anim
##via
citizen
hammer
##eo
disestablished
ya
simultane
##vo
pace
orb
##iveness
celt
cricketer
incidents
possession
liberty
punjab
innings
reservoir
##aser
elite
amster
ank
sweat
governments
munich
escaped
##rant
holland
effectively
sag
allies
##fly
yale
patron
versus
grip
##ibute
volunteer
touring
cp
annually
1940s
##gio
mant
kidn
angle
eyebr
##fire
##itarian
supporters
proud
limits
leagues
filming
wick
continu
decisions
laura
entreprene
humor
cardinal
cn
sier
valent
stern
1869
capit
genetic
apost
shares
amsterdam
upset
files
sharing
gn
sentenced
cec
viewers
automatic
elli
ranks
slip
functional
technologies
barcelona
reed
blast
##udes
elevation
##ogan
delta
carrier
punk
ibn
dere
bulgaria
##assy
debt
krist
physician
##cht
conj
ai
##state
##achi
amazing
ratio
recommended
##crimin
##after
mixing
##lock
bulgarian
motorcy
ernest
totally
appreci
unex
##itter
benefits
##stairs
fid
posted
bars
shadows
remote
vulner
##icance
abroad
root
##umps
vampires
##oly
enforcement
flex
collaps
valu
raz
##eli
evangel
denver
intense
##istani
canon
##olds
forehead
##ivation
tir
##asia
azerbaijan
guild
acknowled
tommy
eagles
km2
baronet
murphy
settlements
pond
##oi
strand
practical
identify
##drew
rena
brill
hack
cheeks
afford
happening
gilbert
spark
jefferson
withdrew
dollars
pushing
##itate
rocky
argument
jav
emotion
wip
connor
swift
harder
hispanic
commons
edwards
comprehens
154
occasions
claiming
hebrew
ruling
tribute
tut
neat
partly
incred
significance
careful
hiding
encouraged
##holm
##aire
##eing
autonom
funded
regime
vermont
##ropod
eggs
spencer
girlfriend
aux
appropriate
##anged
153
defenders
rally
stall
glance
wished
##terior
derby
breakfast
feather
explor
dictionary
forgotten
chan
##agre
hect
anx
colin
##rah
partially
##ahl
##ayer
fus
qualification
arist
grinned
##ivery
machines
astronom
##aba
##chy
defending
venezuela
harmon
massac
virus
##gets
encl
aggress
##osc
weird
sheet
intersection
jail
fighters
hospitals
manip
garcia
##erie
croatia
diver
sprint
romance
##izer
rarely
recommend
##enos
monday
hond
##pread
thrust
permission
##ovsky
##aper
##borne
convinced
ana
reaches
excellent
2010s
gonz
hi
##uration
##24
expensive
ware
operator
stronger
jacques
thai
gav
clinton
caps
rebellion
riders
intermedi
vibr
slight
##rik
donated
reh
controversial
silk
nevert
widespread
exists
1859
diameter
buddhist
##ashes
heroes
nevertheless
manuel
##amese
excess
layer
##onymous
frowned
seth
disaster
greatly
maz
delivery
##hers
##osing
belonging
stim
exercise
##ridge
nobody
diseases
insects
##roc
concerts
ultimate
1850
attributed
nak
thorough
bonus
senators
populations
muslims
md
##ennial
statistical
gol
tours
opponents
##echn
##ichi
##castle
##ilia
adventures
hast
voters
skull
algor
autumn
##fielder
fi
##lus
anticip
excav
kenya
##ieve
rogers
remainder
vertical
formations
nurse
aaron
hydro
ethiop
unn
minority
1848
##ener
rated
##igo
isaac
##graduate
beast
ard
mead
propag
publishers
dozen
shouted
neutral
compound
yield
atom
extent
rook
sympt
norfolk
auck
algorith
panic
##rs
rocket
erected
athens
oxy
cartoon
companion
embr
##family
auckland
dominated
indicates
herald
syria
stare
welf
opportunities
persu
artific
behalf
tomb
subdiv
tol
trio
kicked
predecess
##itis
informed
venture
##avery
##raham
component
ideal
##oning
1857
delaware
muttered
##esty
supports
##keley
devon
##oric
##tz
apolog
##utely
ingr
##omi
stanford
rey
emotional
sask
warrior
stops
doctors
xx
lisa
##bie
patterns
aster
auto
##opp
gosp
##ete
##math
##osaur
camps
ein
fellowship
relation
ranch
harbour
historically
##ectors
burg
registr
##anni
##isha
xi
##dp
commented
pub
opens
leonard
explo
cameron
ordinary
##ovich
suspected
##ixon
cruc
pete
alternate
dirty
wander
happens
suppress
outdoor
diplomatic
hated
recovery
discussed
anchor
dramatic
##wers
raymond
orch
rah
periods
contested
##aping
highlight
anglo
enemies
##backs
##iaz
scores
anglican
##onaut
stroke
enthus
##eping
christians
kas
reportedly
unre
stun
playwr
twisted
##su
fung
collective
nathan
##amo
ignored
##opr
##liga
categories
lets
jeans
trigger
owen
certific
acceler
##people
pump
knocked
relev
chester
gregory
##anga
enterprise
##arrass
cattle
presid
apply
infl
laure
sevent
drummer
petersburg
filmm
frequent
lamb
jag
moral
merely
mask
ticket
140
##apse
##card
assets
writes
cyr
nomine
emigrants
embarrass
##iji
grammar
shin
remark
abstr
pi
discrimin
##unction
colored
worker
clut
essay
nee
ceased
constituencies
compens
haven
germans
muscle
berkeley
101
joan
athlete
partial
elsewhere
couch
chancellor
bend
dors
nac
##ocation
tox
bav
lowest
preferred
ties
searching
alter
liberation
tamp
florence
##ucker
fee
attending
viewed
percentage
##70
soap
territorial
pants
malay
cried
ober
##uin
pearl
tape
##ouses
exhibitions
lucy
iz
gothic
marqu
oscar
connections
##inson
consumer
squeez
advisory
dug
steady
tuc
##gom
restaurants
toll
welfare
calendar
##urr
subsp
sierra
arnold
tenure
memoir
resource
pregnant
cox
apparent
prosecut
belarus
##part
staying
sample
##ema
displayed
missile
abu
episcop
##oons
therapy
revenge
thereafter
badly
principle
latest
clou
tanks
lover
opponent
comparison
deuts
leeds
galax
ramp
pall
cf
thirteen
sear
105
cork
instant
midfield
declar
renaissance
pakistani
dismissed
boundaries
disband
inaugural
##ampton
##emed
forwards
##rine
spear
conclusion
gauge
ottawa
vacc
secured
creature
3d
cree
kend
##iler
valuable
bert
consolid
vid
christianity
fog
admit
brisb
harvey
ensemble
substantial
prayer
democrat
rebuilt
##pled
laz
##iao
##bling
##riers
##esters
inspector
perm
sony
trace
1800
execution
##ovan
assisted
grove
immigration
distant
brisbane
eb
northwestern
placing
saskat
seal
traded
napole
conductor
administer
predomin
##lete
##22
##rin
grandmother
##itary
##90
sod
concerning
generated
tin
ongoing
midnight
aus
encyclopedia
aftermath
moh
radar
telephone
##pher
mechanism
##achment
thigh
bread
organised
hier
##oard
epic
implementation
attractions
exclusive
hawk
perce
lily
publicly
unanim
##rat
goddess
mamm
1854
peng
exclud
##eto
cardinals
sox
evac
duncan
volunteers
reporting
awar
taxonomy
speakers
##othe
forcing
traditionally
##icia
reass
##station
recognize
tables
slaves
facil
##gins
rut
connecting
exceed
bloody
traditions
reduction
##ean
strat
coinc
pedro
stere
wallace
congressional
scent
continuous
##agar
slav
dame
##uations
options
emotions
1858
jak
nc
stiff
cruz
snake
##ester
##ghai
sixteen
presidents
##brook
helps
bever
tons
perspective
manufacturers
departments
literally
vil
##uctive
##enders
dirt
awareness
criter
recipient
##oven
indonesian
fortress
dent
##urst
conversion
crypt
bach
screw
##ibilities
watt
##ulum
wilhelm
narrative
hod
jacket
##eda
confusion
mann
cogn
mistake
kre
tournaments
##icus
ster
##bles
assessment
writings
somers
doesn
overw
##leep
##alam
confidence
##aters
##ader
##lights
##ansk
towers
##haus
burns
discontin
swan
facebook
pec
watson
riv
##uez
republicans
moz
inches
hollow
extinct
wellington
##eps
stair
embassy
wider
treaties
jor
cigar
phd
globe
strengt
##ettes
terrible
escort
ecu
sullivan
struggled
climbed
##pping
1855
##isch
reluct
relocated
cun
comfortable
nephew
certified
bras
##anthrop
qualify
eldest
twent
heights
##cribed
tenth
pitcher
##dish
##ourse
adrian
rushed
preparation
abraham
ceram
venice
stakes
vladimir
beam
tyler
congo
philosoph
##eve
businesspeople
spart
lebanon
##opl
boyfriend
acquisition
wouldnt
regulation
lodge
attempting
protestant
urugu
muscles
##ea
patent
francois
earning
pirates
consort
##oshi
microsoft
interviews
##ensively
lowered
##opsis
stab
throwing
mathematic
prisoner
##icon
thrown
characterized
variant
participating
condem
perfectly
corridor
##ommun
##gun
deeper
rent
derek
tension
rode
trap
newcastle
polar
journalism
fitted
organic
corruption
chorus
academics
crus
innocent
confederate
wise
##iable
trev
mim
distribut
suburb
##lain
##enched
mild
arriving
##ums
requested
traveling
parade
phillips
harper
bout
farmer
governors
deliber
interch
steep
ceremon
locally
molecular
maurice
##olition
telegr
##umi
##emon
isolated
settlers
boots
##cat
tested
preservation
talks
bened
tube
thinks
##oko
friedrich
overt
manufacturer
torped
##irk
dancer
mathematical
hardly
##olph
##hin
sequel
nem
shim
dispute
##yne
brands
wonderful
buzz
substitute
tender
figured
##dal
farming
hello
##etti
duck
ming
revised
1852
##rie
deployed
asleep
merger
compositions
decides
bosnia
subsidiary
##caster
loyal
1856
##world
jurisdiction
topics
switched
##bound
fist
presents
yours
establishing
ji
##inated
sovere
apoll
underw
sovereign
warsaw
suz
##ieth
celebration
##rom
tram
idaho
bite
shots
usage
judicial
##ounted
kyle
stake
##21
leop
##rection
##hand
egg
adjust
cb
wealthy
##andez
radi
jeremy
shanghai
##auer
##26
puzz
arsen
latino
psychiat
bore
brut
fortune
rams
##aukee
##rington
faint
sandy
ek
terminus
editors
kerala
raid
reyn
marx
##care
config
wondering
##oan
furthermore
lightning
##xual
libraries
##ylan
noah
##insky
coins
gathering
syrian
drafted
client
mario
lub
##pear
immigrants
##ahan
recalled
##rog
thriller
cair
autonomous
roche
hughes
tunis
##bus
##eters
artificial
##rys
##iago
leaning
bats
##cester
banned
spy
franco
stolen
interpretation
wash
roth
##stown
implemented
##elin
##oro
nashville
##iour
montgom
prelimin
ces
sinc
mansion
supplement
comprehensive
paying
rings
arrive
sheep
chip
produces
grows
fauna
atmosphere
suitable
montgomery
folded
reveals
nancy
##acles
wan
##anning
##uro
tibet
mumb
otto
freyja
cros
betray
believes
aub
survival
retrieved
##ulating
conspir
##eneg
pursue
pairs
relay
identical
guit
manual
bills
##opa
##esco
hips
shakespear
robot
kash
surrender
cauc
##wald
scream
unexp
monuments
completing
fright
zane
shipping
framework
arrangements
temples
toured
intercept
kra
grandson
bruns
##oku
fulf
eugene
spotted
grades
##abe
sufficient
rider
unw
dealing
##minster
furniture
pour
milw
thumb
bj
##ffield
pupp
absolutely
##iolet
##most
geoff
decorated
claud
ruler
outbreak
tasman
generals
symptoms
spots
sailing
attendance
unt
shops
syr
trim
brack
societies
##agi
toler
earthquake
annex
answers
chad
procedure
pla
updated
##gov
acres
ace
bases
106
##atar
deport
newton
jennifer
dominant
##gon
unfortunately
widow
bm
challenges
morph
fundamental
logic
byzantine
warfare
campaigns
wiz
##aeus
grande
##ints
stein
##eling
ecuador
cycling
dos
reserves
rhode
printing
nigerian
interrupted
##uy
negotiations
##uman
##ersed
##ifier
ing
##ppe
natal
##27
exposure
sailed
sized
##anned
verse
intermediate
pilots
##ords
1851
franz
disestablish
##isons
hamburg
bigger
milwaukee
sou
simultaneously
tract
pitched
crosses
intellectual
mouse
suppose
libert
marathon
##pert
dip
##orig
fourteen
helicopter
rhodes
package
loves
freestyle
palmer
columbus
dale
oxygen
##bek
gastropod
##inum
unsuccessful
philanthrop
##unted
instantly
manufactured
entrepreneur
##wing
hallway
104
crying
inspiration
miguel
influences
##lass
diesel
flights
overwhel
bennett
princeton
vital
##ules
exclusively
dict
##pat
##acc
initiated
mt
hale
giov
error
unexpected
##alg
kee
fossil
1849
hitting
aboard
episcopal
103
describing
reorgan
ud
housed
chrom
harsh
focuses
offs
creatures
vest
trin
##eni
novelist
confident
swimmers
grid
vow
abilities
achievements
##omar
##rod
interstate
theology
servant
theories
melod
skill
##usk
beetles
presby
##bod
##furt
solutions
##sis
priests
clarke
kazakh
##atched
brunswick
internationally
involves
advocate
twins
ronald
visits
assists
flames
ion
basil
mg
##riet
balls
gerald
graphic
riley
##iry
1847
lobby
civic
lope
flick
guitars
filipino
##ente
eru
##28
sheffield
screamed
##avan
innovation
structural
citations
ig
##quin
##vet
excited
ranges
lenn
devoted
wrist
ranging
breed
schm
1853
antiqu
twist
jesse
collapse
designation
signals
##irm
1840
eyed
debuts
claude
##ogne
improvement
keyboard
hindi
##mun
founders
marble
resignation
lighting
garage
##page
panama
increases
semifinals
unions
hass
compiled
fairly
##inda
##beat
prepare
novelists
diverse
spac
whist
promoting
defender
jos
cuban
manuscript
firing
kad
##star
closure
##isy
clerk
sudan
temperatures
dischar
gospel
##found
obsc
##abi
preliminary
gmina
clergy
proteins
buses
bust
referring
annoy
impression
handball
inhib
essex
reminded
recreation
congregation
readers
editorial
##obile
julie
##unda
hybrid
felix
corresponding
trium
tens
##quet
stefan
##ecr
##var
emir
oblig
##eca
karen
posts
scotia
chiefs
psychological
lords
locomotive
comments
boun
computers
playstation
conventional
desperate
##arians
mete
mainstream
##uh
phosph
marin
disestablishments
drake
krish
garrison
submitted
reviewed
classroom
nico
chron
alge
##bir
commod
restricted
chocol
belongs
examination
rhe
southeastern
##zig
heavyweight
louise
amazon
heath
saving
##cules
infer
##rage
108
shocked
explosion
dish
fastest
petition
oral
##omo
##tor
##99
departed
##agers
yugoslavia
contributing
phrase
punishment
tatt
prices
artwork
plates
warned
prague
gy
uncon
insisted
visc
aborig
peas
syndrome
chore
bitter
recognised
autobi
commentary
caroline
##active
blin
dominican
ratings
rabbi
##roe
checked
ultr
##ensen
##agonist
##enter
##35
presidency
interc
relegated
ahmed
recurring
##ulus
arabia
##heart
dependent
holl
##roid
##ław
demands
rebels
##cz
dow
##gent
columns
veterans
whenever
nursing
walks
isle
respective
doorway
notting
breeding
variations
curric
eligible
midfielders
belle
stretched
cuts
##chewan
gott
experiments
associations
travelled
electronics
breaks
redes
dialogue
skel
deer
mosque
bik
explanation
paulo
climb
##estershire
fib
saskatchewan
##isi
fraud
suite
swallowed
swept
crist
##oux
breathe
##lag
fen
crashed
##bin
dylan
une
specialized
brooks
declaration
divine
targets
reds
removal
mum
alpine
elabor
mv
##atics
lopez
##lessly
militia
accessible
moss
curve
gand
inducted
veteran
essays
regret
resumed
absolute
subc
measured
refere
relevant
palestine
drif
compress
##eb
##velt
bearing
wilder
colonies
##cott
1846
customs
originated
##sburg
##omorph
hitler
adr
travels
##cripts
delayed
rage
mutual
brings
rebel
fet
midfielder
rd
lone
piet
somerset
plaza
reward
wals
vocalist
exile
commanding
defended
##ourt
valle
shen
regardless
drain
catalog
##rons
succession
stockholm
##uter
##vas
presentation
explains
airfield
arrow
107
nickname
diversity
iso
##olly
135
indicating
fond
ras
shelter
payment
cats
closest
murmured
##front
winn
hardware
quantum
edmund
slide
rim
edu
retreat
kenneth
mainland
endors
graduation
mahar
pianist
yan
jamaica
##avi
freight
interchange
cheer
courage
controls
banking
demonstrated
ply
indianapolis
vulnerable
pointing
conflicts
##si
extend
##uto
beetle
##ciation
sensitive
neo
##usa
difficulty
swear
##elines
voyage
chim
yelled
brass
lithuan
##far
##kes
flank
ellis
everywhere
inherited
misc
##aku
##eled
shaft
accred
disorder
liu
##oslov
##eri
##olving
temporarily
theoret
##ountain
cro
reverse
##atra
destination
missionary
johannes
armor
waved
hearts
bb
coin
rede
reflected
900
boards
##icity
upr
bam
samples
##ieu
dissolved
employee
methodist
carries
durham
orbit
bankrupt
fluid
##ozen
##fo
engagement
axis
belf
##illes
excellence
128
surprising
mythology
graphics
abdul
canyon
##ounting
borrow
dropping
prey
installation
stephan
celtic
uganda
pam
chicken
laughter
vietn
argue
tough
numbered
stopping
oakland
ivy
polo
monte
##lla
##anted
preserve
magnetic
manit
piss
inject
detect
115
shakespeare
roose
exhibited
hd
##isle
highland
santiago
rookie
albanian
divorce
vietnamese
##ische
##iast
gan
messages
administrator
shorter
cage
touching
variable
##45
##boat
dragons
ci
attacking
cafe
scandal
bitch
interpre
paras
##ourg
approaches
wheels
strings
##adier
failing
##du
reconstruction
##ifies
porch
bombard
centres
descendants
aires
focusing
##eff
##uta
quarters
stretch
perth
lesser
##bank
beaten
della
secrets
##ija
olivia
##atta
instruction
grammy
behaviour
nottingham
jeal
iraqi
##illon
gorge
bree
##wart
circular
instinct
allan
bombing
impressed
pleasant
spun
span
##isp
revel
porter
doug
blame
patric
logo
chlor
mcl
trapped
binding
proceedings
frozen
metall
aids
quartet
preston
annie
##umberland
lots
dorm
attitude
contents
herze
dialect
feud
collapsed
rational
##phis
observation
##andra
dollar
yester
depicted
buenos
tornado
##acion
altitude
patriarch
belgr
##hall
zhang
##vers
collegi
hank
capitol
nationalist
boom
frost
motorcycle
bike
specialist
turb
nasa
##iche
eds
bryan
concepts
ease
orph
cyprus
##48
aspect
##ifice
glory
brah
variation
roland
dong
wheat
obama
inhab
footage
cannon
personally
clo
1830
ist
gel
eps
czechoslov
manila
immun
doesnt
eleph
hik
eis
##phal
wend
slavery
lak
##ocene
hungry
workshop
permitted
shes
perf
ore
##eme
hr
taxes
quarterback
deemed
##atin
herzegov
fis
sussex
distinction
matrix
geographic
stub
spat
belly
ahmad
nig
layout
czechoslovak
wednes
##borg
##29
blur
chambers
integration
plains
objective
reader
sits
alc
##33
seminary
carved
##neath
brilliant
##ensional
mineral
##ellation
yesterday
roosevelt
mtv
109
certificate
signature
eighteen
afl
##ei
linda
salvador
boulev
##ipher
##ether
##esa
##thr
##iper
advisor
premiers
intensity
listings
1845
vand
##fers
rodriguez
kem
pist
ez
phon
jealous
reducing
neighb
highways
brow
refugees
murders
worlds
rushing
##asse
directions
trunk
utt
vine
burials
rankings
quint
reich
##avia
essentially
mumbai
##mons
##notes
unity
mercury
plenty
olive
restrictions
elevated
incomp
survivors
ting
lined
fires
##itus
145
oriented
creator
##encia
theatrical
andrea
clients
presbyter
bailey
sophie
bruss
flour
##music
fountain
pupils
bros
vii
quit
input
palestinian
##apur
thurs
tightly
shak
##isan
identification
hotels
##agne
radiation
##person
##reen
enters
tissue
dining
fury
kang
##kl
reply
##marks
ferg
evolved
massacre
herzegovina
##inks
climbing
gael
poster
##enhagen
demons
buddh
kills
chocolate
hadnt
dome
suspension
interaction
unp
disbanded
ti
zimb
encounter
##aran
jessica
amphib
##ilding
lithuanian
1837
enrolled
ups
casualties
brush
depot
superintend
beta
appeals
leslie
sofia
supplied
fever
relating
efficiency
stevens
screaming
sculptures
emerging
testament
blinked
cornwall
floors
difficulties
meteor
copyr
##asters
powell
149
hil
collegiate
wednesday
127
##uba
sham
fay
##elyn
variants
contracts
exhibit
fare
zomb
registration
underneath
imprisoned
fang
glou
vault
davies
relieved
##ugs
##imo
brows
canter
##walk
aa
fart
nintend
lessons
dwar
eco
troy
governing
skating
southwestern
georgian
receives
thursday
##enger
cultures
giovanni
holmes
bradley
enorm
generations
bicy
phenomen
gameplay
##ochem
kot
predict
sanctuary
frontier
1844
whats
referend
infin
styl
predecessor
edges
airline
1839
gt
facts
lighth
spur
legit
hypothes
##oping
nintendo
northeastern
sep
horizont
quarterf
programmes
circles
##oj
emphasis
##agr
kissing
solomon
bloom
authored
##abwe
ges
##uania
chapters
fake
indo
##strong
herb
##bird
##cos
fn
##ystem
moist
fbi
likes
sculptor
kane
spectrum
##onso
challenged
espn
##acco
releasing
##icz
archer
lithuania
privile
fairy
##cano
extensively
collaborated
chop
##ashire
##actions
##usc
feeding
mysterious
undergraduate
healthcare
pilgr
morocco
suspect
pleased
pursuit
reid
altar
praise
##manuel
##zing
lancashire
tossed
##otto
dag
punch
burial
keeps
casting
gly
hopes
boulevard
anthology
monkey
tampa
operators
##zhou
seized
hort
tok
farms
servants
intervention
canoe
zimbabwe
aston
developments
##inth
scattered
accum
basement
localities
elevator
sailors
mock
stark
banner
shiver
ecl
endanger
receiver
surnames
##fi
##itic
ferdin
##py
##iate
wyoming
cylinder
topic
laser
constantly
##boro
##eur
jab
andrews
consumption
jewel
gymnast
148
##38
##zon
guilt
characteristic
indies
excuse
handling
metre
147
pounds
discrimination
prototype
erik
instructions
wig
westminster
comedian
healthy
1841
overlook
landmark
eleg
abrupt
confirm
bundes
##iman
graves
kob
marshal
ruins
consequences
sd
##hev
ritual
violet
tributary
facade
joel
hannah
announcement
batman
auxili
mb
britt
eccles
fernando
interactive
shoved
##oque
denis
distinctive
fatal
##inery
##orous
copenhagen
##ompass
lynn
galaxy
malta
heal
brussels
##colm
thesis
timeline
interface
##top
protocol
amanda
hamlet
surely
chains
blu
##irus
awk
improvements
cooking
ned
properly
armenia
devast
meter
utc
boxers
##rh
threats
cuis
prosper
sah
destro
shallow
oval
integ
evident
commanders
aboriginal
##unes
117
navig
chilean
automatically
digit
guang
neighbourhood
##sl
##atern
wrestlers
discontinued
rovers
##andy
##idal
malcolm
1812
arrives
addressed
realm
pastor
1843
##olin
citing
sabha
##quer
compact
feminist
zach
unr
butterfly
##atha
experts
heter
dang
deputies
##atem
bibl
holes
server
customer
cathol
stranger
##ilda
suburbs
rubbed
administered
grain
kumar
evan
lecture
liam
explicit
meal
migration
hul
##anton
professionals
encompass
orland
citizenship
aerial
repeatedly
reconna
occasional
wont
1838
grants
celebrate
##child
mere
slammed
terrorist
jas
estates
namely
provisions
##ulsion
ludwig
lectures
warn
rope
mh
assume
spokes
situations
clif
mcg
reforms
agr
beau
mane
##engths
##brand
performers
colleagues
commenced
quinn
zam
ampl
grate
torpedo
uz
##ishi
awkward
manifest
dud
cruel
##annah
alg
saxophone
exploration
extending
afc
reconnaissance
efficient
##orum
consistent
martine
computing
trevor
brandon
algebra
airports
##atorial
stored
memphis
swamp
investigate
frown
sustainable
clouds
spo
listened
preparing
ellen
##ecraft
struggling
mixture
estonian
impressive
luxemb
marco
manitoba
invitation
tribal
volt
accurate
humanity
alley
copyright
neighboring
literacy
##xi
floating
wolves
legends
##aneous
##boys
hym
delight
##eh
java
##appr
telegraph
convert
disl
abolished
nate
nowhere
multipl
sustained
benedict
kann
sas
##gary
chaos
##pin
138
theological
1835
glenn
physically
statements
jumping
symbols
##eded
armstrong
analog
naturally
1842
marian
apprent
euro
paralympics
cyn
1832
curtis
aest
reop
lyon
dare
diplomat
tactical
transformation
##dering
##sy
keen
fraser
kinds
abund
dash
consciousness
##66
tanz
conferences
bride
convince
coached
pressing
householder
##chan
helm
##iii
wasn
wesley
rapper
immort
cherry
blocked
rounded
diana
portal
1836
newfound
swung
##power
malaysian
slept
reactions
plum
amounts
istan
hipp
pulse
sexy
aggregate
documented
equation
glasses
clinic
upcoming
everybody
screenplay
seas
rosa
permanently
twitter
vat
lah
boxer
lecturer
uc
carriage
judgment
##ecies
##esse
commitment
maintaining
infection
gp
idol
collar
guerr
batter
nikol
istanbul
129
labels
reformed
##loe
equally
vinyl
uncomfort
##ylie
rape
separation
accessed
##inos
##mir
anders
excit
mammals
newport
marl
townships
rubber
filling
102
##enzie
cly
##aea
barrel
##opol
exterior
melody
reel
gov
monitoring
twentieth
##inge
canterbury
##hd
concentrated
mercy
diving
jenny
blo
henderson
civilians
doctorate
kenny
conquest
intim
ufc
booth
curious
accomplish
maker
fergus
millenn
##ept
118
grac
fk
##ateral
connects
##ports
simul
compat
batting
verd
simpson
lut
##fb
arbit
kurt
amid
striking
##osition
richardson
snap
mia
beard
streak
rept
frankfurt
fewer
cale
clement
aims
amber
triumph
eager
outf
##iane
platinum
interim
frig
dew
verb
philosophical
bowling
superintendent
##irl
invis
sard
gaining
emil
dolph
butt
pag
renowned
dimensional
##eville
##azed
attraction
tasks
treasure
squeezed
guided
cheese
hugo
##ste
posthum
napoleon
symmet
naming
auction
recruited
bomber
chelsea
hak
disg
engage
wand
marion
##jay
melt
brushed
guidance
##arez
##ados
honored
weaken
kingston
wrestler
dynamic
patch
cameras
yo
brent
firmly
supervis
##bone
surgeon
cere
estonia
zen
##anti
noting
##itudes
stead
caes
bury
pt
##atoes
loos
##vent
spirits
celebrity
cancel
counts
songwriters
catalogue
carm
affiliate
cater
##aru
oc
trek
##hra
nineteenth
orlando
vale
##rist
chairs
##ingen
ich
##ede
##ør
##irts
antarctic
riot
##add
edgar
nass
sally
navigation
miner
torture
perceived
wur
##tym
lance
penetr
##000
##nut
##pted
abstract
damp
picks
##ben
dund
dragged
curriculum
enroll
viola
hag
jared
consultant
kilometers
shane
ferdinand
item
pipe
anarch
##ullah
##ilo
picking
unanimous
victories
##ht
mell
chronicle
flame
loving
physicians
inscription
guatem
##agram
zoo
och
##iffe
heels
##ieg
copa
renewed
jets
monica
##rot
codes
legendary
designers
calgary
hopkins
albania
conspiracy
raced
crops
##leton
nobel
summon
goalkeeper
armies
reiss
moderate
headquar
##46
absent
drawings
boarding
##woman
##ibe
prevented
governance
sho
auxiliary
mechanics
observatory
boxes
pars
holder
catholics
belgrade
clearing
##the
bye
curse
loaded
paradise
notre
wart
abbre
joke
nicolas
engr
pistol
##inas
crop
cuisine
##azar
surrey
blanc
optical
trailer
epit
membr
gibson
hunger
pulls
sliding
magical
ethics
##enzo
##36
mund
happiness
procedures
centered
##ardi
##47
##amas
executives
expecting
forbid
denomin
strikes
fucking
encountered
##books
##igious
sheets
vector
followers
transformed
##monton
retiring
tune
straw
buddy
artif
mothers
flute
raven
tues
etym
streaming
theoretical
alv
corners
awa
moor
##heng
barrier
bradford
accus
##ugging
arsenal
350
##onscious
nationwide
cinemat
##osexual
##awi
eh
curtain
##ashtra
endangered
exhaust
cyclists
tril
ik
##emann
pend
cardiff
rs
ole
137
##annon
1500
concurr
tuesday
lesb
criteria
##ophys
performer
tobacco
nominee
bhar
volcan
##yo
hms
associates
cambod
##andro
##fu
para
melan
nacional
gasped
portions
prostit
obst
bark
planted
milton
bacteria
##apest
lutheran
kom
protecting
bea
pyram
resur
maggie
##avian
invented
threatening
jungle
imagined
chev
trustees
assignment
doctrine
##amy
slovenia
apollo
presbyterian
cruise
subspecies
##ilian
thereby
displays
beliefs
##ecca
comprom
bastard
fract
allegations
explore
html
presenter
##pid
360
martha
sta
##onne
elimination
accommodate
119
questioned
pard
martyr
tah
practically
residing
relatives
betty
authen
privately
favourite
bulld
transm
qing
editing
jal
edmonton
lawsuit
fork
khal
##bol
##onn
bulk
enormous
sulf
oslo
guarant
1834
icon
##gard
foods
##occ
touchdowns
##mu
dancers
accent
portraits
committees
vor
narrowed
robertson
manuscripts
epid
altered
sts
tran
bail
counterpart
##olan
stationed
##urance
joshua
marcel
broadcasts
predominantly
activated
mlb
minimal
complicated
algorithm
ari
comprises
cyber
pile
sacrifice
casey
prevention
carlo
arctic
rivals
stafford
stack
terrorism
##idy
discipline
##hou
##zyme
cluster
typh
quadr
##lee
##natural
biblical
buc
##uj
faded
lec
capita
nadu
##berger
##aic
##cu
outs
lyric
travelling
harvest
approaching
##len
streams
applic
##zed
burton
referendum
griffin
##oye
rifles
##guard
slovakia
siblings
rost
##oder
##ovision
consens
leip
##ocar
alumin
reynolds
knox
revealing
segments
compounds
monroe
116
ammun
resting
bis
encourage
##erver
##lining
hs
geneva
dul
##37
##avier
advertis
circulation
goodby
tet
proxim
crafts
allegedly
strengthen
sting
##pense
troop
##ienne
delegates
ish
##antha
lump
##alez
suburban
lightly
johns
lovely
##uctions
puts
garner
lia
complement
geology
bypass
eva
##cor
146
actively
flowing
alert
126
semin
marines
##etics
evaluation
extends
sik
ink
severely
consequently
endings
smiles
1815
aria
utility
##orious
##hell
nath
steal
dumb
##opy
shud
zar
linn
dup
vend
owns
136
rc
monsters
##pit
auditor
rulers
recruit
##eley
##list
luxembourg
postp
ammunition
##oche
finale
neighbouring
intens
alphabet
creates
hydrogen
sunk
frog
casino
pierce
pus
argues
warrant
ves
##riages
oriental
##oya
medall
##apa
sacrament
##force
pronounced
indie
observations
kaw
awake
hoff
iw
entries
shy
##embr
spite
edwin
bedford
tenor
##umbling
excitement
hurry
delic
testim
vall
educator
collecting
shrine
stability
parishes
speaks
##iated
##fol
chrys
daddy
rehabil
geographical
trails
refr
##imer
colours
##regular
topped
cornell
spine
hatch
suggesting
##bis
relaxed
submission
cdp
veloc
manages
##iden
dot
acknowledged
##erts
jung
wounds
raiders
requiring
zurich
healing
rex
gravity
contribute
ccff
remn
mats
entity
juven
utter
sometime
irregular
sixty
descript
americas
trucks
barnes
##criptions
ccffcc
petro
halfway
##untary
targeted
arbitr
theolog
fence
spare
prehist
bless
amus
revol
beds
##flies
ally
titan
shrub
warmth
premiership
emmy
nost
cohen
theodore
##strom
synonym
nah
richards
rebecca
potentially
alarm
handled
curled
caf
dubbed
layers
rend
##atsu
believing
array
ibm
pled
rash
merr
middles
possessed
##itious
##stead
zool
satisfied
##ilder
belfast
telecommun
oliv
##arta
imprisonment
##wyn
uttar
hm
stam
viii
secular
somebody
cottage
hardy
constantin
screenwriter
hiv
michelle
huh
contestants
drinks
woke
mascul
rays
gonzalez
ordin
trips
rowing
pab
flooding
tooth
coch
morrison
ecology
regiments
investigations
##azi
tucker
extraord
salem
unem
consent
divorced
##lined
hels
##estrian
developer
##acular
julius
withdrawn
speedway
mayors
bee
elena
allmusic
weigh
##stadt
counted
brave
lens
burke
##istent
shade
feared
##kal
##ondo
gustav
costume
wei
yosh
holdings
elliott
proceeded
##hail
nitr
teenage
##aid
lied
wagner
kara
##ов
##nic
determination
deriv
volcano
prospect
##yd
hp
ashley
mari
budapest
knockout
##asian
mcdonald
triangle
##lar
##uku
paragu
restore
shorts
carroll
##riates
##los
gaelic
consecr
nh
1833
shi
##kinson
wiped
seam
calvin
millions
collector
kok
findings
jerked
brien
1831
tac
halt
yuan
romanized
insult
abandon
examined
homet
handsome
peg
##orders
##ilion
inland
theorem
conducting
maharashtra
specimens
investors
ix
rochester
arguing
pause
baroque
practition
##piece
fathers
brigadier
bags
##inia
##atories
surve
uprising
easter
mog
colt
seoul
deaf
expanding
ballot
runway
dorothy
eventual
##ocaust
albany
panels
discovers
improving
walt
plymouth
greens
witnesses
nina
lancaster
culmin
yak
geological
introduce
cran
reads
##mare
atomic
windsor
aka
accidents
treasury
##run
currency
convey
independently
horizon
mab
glow
limestone
vick
enabled
shame
139
yun
firms
##hawk
mk
invisible
##holders
boris
diary
interactions
martinez
automobile
atlas
fights
lid
kazakhstan
rene
##mail
maiden
nato
playwright
podcast
##appa
privacy
assassination
lineup
attractive
hometown
rosen
trinidad
lever
duration
equality
##adors
extraordinary
laps
##recht
rejo
accounting
jub
##sten
expatriates
pepper
metab
ct
wyn
absorbed
archaeology
leipzig
lomb
eurovision
chill
##lies
##jev
##uchi
dramat
phant
backward
holocaust
##oze
pix
trend
##ouch
##39
unh
blew
dys
##onica
enlar
terrain
concerto
##hey
tate
shepher
unemploy
researcher
draws
classics
prompted
practiced
##iqu
tackles
compensation
koh
georges
##auc
varieties
requirement
cfc
permit
katherine
audiences
circus
##ulture
tightened
chant
1820
##esis
pamp
##eria
kisses
modest
arcade
##onna
plateau
##illance
comprising
brighton
yankees
traged
deals
enzyme
dex
halls
##oline
ussr
brom
##49
heather
savage
##ivo
rebounds
enlisted
doz
##chel
koch
fragment
decree
guitarists
ordained
##sole
nicknamed
flowering
flashed
tourists
##arin
##thouse
toil
madh
elector
nobility
miranda
magnus
eaten
inver
kell
curling
rainfall
harmony
bohem
palomar
underwent
instructor
analyst
destroyer
precip
bits
seated
wreck
##olith
brock
reserved
plac
conven
seventeen
hint
andr
rhine
hex
drops
unoff
disk
lifting
dayton
algeria
cyclone
nerve
clara
hurling
metaph
##orne
##adh
dimension
ambul
enhanced
xavier
eyebrows
ignore
presum
polyt
accomplished
particles
raja
##hart
mw
##otting
hurried
santos
nationally
##elong
minne
inhabited
cure
unve
wow
##idt
pdf
surveillance
tense
nationals
headquartered
hesitated
wishes
##ymph
assured
dishes
newfoundland
rectang
aberde
souls
curved
transpar
relegation
sf
winnip
##anmar
agu
removing
assembled
sake
trumpet
landmarks
poured
deadly
proven
##rec
wilderness
ethiopia
transmit
springfield
sack
authorized
compass
louisville
##bbbb
reconc
feast
pursued
chir
blink
fusion
drives
dimensions
purse
##kok
ley
##aders
cay
ate
##immer
inquiry
revolt
wagon
bombs
convoy
tide
crawford
dign
berry
priority
bce
marg
virtually
hunters
##ifax
##anner
nou
tomas
reef
ucl
biz
offense
##otr
##season
observer
consensus
overhead
hierarch
deceased
goodbye
chate
winnipeg
moreover
##asan
embar
zones
##lif
luk
joins
1825
jill
footnotes
depends
adoption
grateful
mesa
substance
rox
scratch
##shine
peaceful
##rina
powder
mentions
smoking
chef
##dan
thames
kern
rises
willie
bunch
##iae
1814
alexandria
carne
bash
imposed
fertil
flet
##amine
blanket
##zel
##inski
boeing
cared
lifestyle
##iens
cement
##uru
##32
darling
myanmar
prestigious
sketch
sensation
##alm
upstairs
farther
empress
growled
cia
rainbow
accidentally
kai
reflection
perez
polyn
spreading
yar
##igi
candy
##hurst
translator
forew
gra
macdonald
rack
porn
falcon
marina
propaganda
elis
heinrich
biographical
rested
repeat
webb
ernst
1828
maya
##des
protective
advised
outcome
edit
reunion
oy
sopr
##cestershire
widened
macedonia
involve
saxon
disorders
thermal
kylie
##anor
laf
sue
amusement
lal
exh
hayes
desired
boost
gian
varied
lebanese
##gang
##ivar
°c
deposits
herman
##eves
##nels
sip
janet
##ylum
nascar
nipp
schem
prair
carson
bolivia
##uer
meh
sind
crim
syll
nm
##vae
missionaries
disgu
##ocer
kul
isnt
111
ridicul
luxury
##ships
protagonist
vacant
enterprises
confederation
nab
halifax
minds
scales
transported
aggressive
washed
clenched
potter
explorer
randy
lace
gavin
breathed
precious
foundations
sucked
uruguay
##ieri
plantation
cassie
ket
silently
bard
##iza
illumin
configuration
companions
##hend
onwards
uncomfortable
mba
lease
anto
councils
whitney
skyl
moses
winston
postal
proportion
bonds
finalist
chu
aleks
pomer
##umble
rolls
##core
##elect
rica
phenomenon
##arre
madag
backs
garrett
##44
abortion
joey
forec
redesign
packed
feminine
upgraded
granite
descended
monks
marking
casc
muk
silva
blonde
##lette
strain
cello
ulster
mature
tracking
personalities
disabled
paralympic
bassist
scouts
handful
##chron
custody
ding
molly
naples
goss
soprano
rak
gujar
quarterfinals
staged
hawks
lynch
##quez
bruno
consequence
750
equity
hosting
##hp
sg
probability
amar
elbow
##arium
maxwell
concord
##urd
##pless
vegetation
##igs
buying
##esses
directing
define
lug
alto
cis
notion
sunshine
primera
taxi
millennium
cataly
skip
gloss
yok
flown
cameroon
crowned
pregnancy
strategies
1826
diploma
ffbbbb
antib
sanche
rotation
paw
evangelical
etymology
burr
colombian
graz
##gled
tactics
measuring
yuk
console
intelligent
catching
magnitude
glacier
stepping
charleston
minneapolis
subtr
##ogl
mikhail
forbes
merced
##iade
##ght
brady
lust
sophia
##dc
chor
exempt
cubs
rabbit
chloe
cruiser
crook
decrease
nk
elderly
##jiang
ruf
lawn
norton
freshman
##nar
tasmania
enable
cleaning
swords
fears
##key
fees
##linary
jackie
rican
badm
planets
environments
gaming
correl
acquire
##ographies
eden
dimin
sanchez
##optera
travis
trainer
websites
faction
meyer
geometry
apartments
##stock
bavaria
blaz
hano
##urated
blair
lungs
chuckled
fierce
exhausted
lighthouse
bw
maintains
solely
developers
1775
1829
ugly
##sted
duches
searched
##epers
1824
##uine
spray
institutional
lc
conjunction
roller
unconscious
workshops
slope
doubled
##ancement
wickets
##market
bombers
promotional
solve
seemingly
admission
analyt
disrupt
##asis
##arag
crest
mint
atp
kyr
chatt
ain
urged
badminton
##wind
ner
consul
cheap
jorge
bicycle
operas
##pi
pok
wolver
barre
##alon
stabil
clip
##idays
routine
carpenter
dante
horm
translations
patricia
telugu
sequences
necessarily
coral
kod
quoted
lonely
##appy
helena
harass
referee
loans
battalions
rafael
integral
unified
portfol
fcc
lighter
learns
shark
subfamily
summers
munster
councillors
ratt
pes
condemned
crap
flies
overwhelming
whites
economist
miracle
loun
overcome
johnston
1821
stained
##rag
amp
##icester
dealt
theyre
jing
roberto
piz
ruby
pollution
continent
ancestry
mobil
##34
##iciently
nicole
lately
dense
inclusion
lum
surfaces
##nn
kinder
##ician
planes
stap
provisional
##elly
nonet
adolf
arched
##aton
bangkok
hover
hok
mama
rt
pie
glam
##enary
horizontal
nud
nj
arguments
kop
synthesis
panc
consideration
avoided
alexandra
claus
maple
duk
bankruptcy
##aris
courty
varying
mathematician
frustration
specified
zu
celest
tribun
treasurer
delegation
witt
sharply
demo
demanding
myr
melissa
dhar
penny
warehouse
coordinator
cowboys
synag
remarkable
wireless
hog
cognitive
dell
##atum
shu
pud
bould
##fight
##itative
wikip
proposals
itv
tackle
assassin
embed
steering
nsw
##elsen
councillor
##onduct
innovative
clust
realizing
bengali
browns
pf
##bery
afterward
disappointed
expelled
karnat
loyalty
tickets
cunning
backup
syrac
merchants
gesture
disagre
##leigh
##ikes
cake
gifts
painful
neighborhoods
nonetheless
galleries
spinning
parked
##ographers
##iol
greene
withdrawal
##lic
dread
abruptly
occurring
bells
lasting
eugen
scots
yi
##atham
strait
catalina
estimates
elaborate
xv
tribune
angela
gum
##chair
controlling
interpreted
rw
tore
newman
larvae
mandatory
hc
enjoying
##ophon
wrap
groaned
lur
sway
romans
recreational
moham
gerard
urge
mcm
nit
freak
kosovo
##iscal
capabilities
plural
##anca
greet
vu
magistr
vicinity
##pc
##millan
bian
timothy
weakness
sunlight
storyline
bleeding
duff
receptor
katie
##aceous
negro
renovation
wwe
portsmouth
orchestr
madagascar
##antes
114
##nai
destroying
rivalry
reck
##alp
1818
arche
generate
lesbian
1801
pref
homeland
yemen
1813
cairo
fug
publish
barracks
unlik
##estrial
rhin
ambassadors
##say
buddhism
fuller
consc
summar
atlet
openly
shifting
duchy
wax
chances
churchill
geoffrey
##ono
##raf
phyll
leopold
karnataka
cups
subway
##ativity
rescued
opposing
112
##athi
huff
ignoring
tips
##apor
appreciate
##uca
##lord
holden
##rition
marched
providence
acre
##anges
fiji
prussian
janeiro
barber
submarines
jeffrey
batteries
dynamics
syracuse
traced
leicester
monet
##aceut
noel
caves
gog
abby
##alus
1810
dried
devot
mug
##shore
baldwin
matching
interviewed
euc
##itters
##inis
darwin
imagination
mistress
proclaimed
vaugh
fletcher
unic
fragments
vander
adequ
wicked
suffolk
##ifa
##yside
sounding
##ennes
witnessed
supporter
varies
##idan
poorly
demonstration
##actic
horrible
##ipur
ripped
sage
leh
##atter
diagnosis
velocity
##ku
##ilee
tad
alec
##oire
checking
acceptance
consolidated
hern
homosexual
##enko
##ilus
agreements
vcard
infected
mongol
sene
athen
wisdom
humid
valentine
griffith
safely
manufacture
mirr
mohammad
cic
refuses
alder
conrad
posit
##isers
secretly
flipped
dull
zion
philosophers
##etz
##steps
legally
scorer
decent
##urai
predicted
hermann
carpet
wald
neglect
##urb
wav
##cock
pilgrim
baltic
tanzania
##enegro
homer
ved
trusted
heated
##arms
responsibilities
spike
kuwa
armoured
dwarf
dair
##lore
kau
settling
breeze
montenegro
autobiography
mechanisms
cedar
dab
walsh
averaged
insect
dispos
beings
measurement
governed
##ormal
explaining
supers
##enheim
ef
##uder
oxid
distinguish
transfers
unlikely
promising
wizard
apoc
latvia
##oughton
masculine
##anto
affection
##iffer
isabella
##idel
quarterly
gag
papua
cres
illustrations
shuttle
depicting
koz
dozens
wikipedia
##iks
cologne
volcanic
tara
##mith
##uran
fossils
squadrons
viscount
highlights
##ilis
voluntary
dio
toxic
phillip
##cin
machinery
gus
kv
sacrific
##held
clare
tuber
regulatory
spacecraft
discussions
panch
sacramento
closet
baden
guatemala
senses
grind
armored
##harmon
vish
salon
25th
##55
##anks
poles
##inki
##ellar
##asium
philippe
##icular
princes
##oding
bates
ecclesiast
##olls
ingred
bolt
update
1822
##aceutical
##ogram
harp
choices
gazette
beats
agrees
orientation
francesco
##had
##etto
supervision
guad
##obe
fantastic
magnet
plas
slot
##rus
tunnels
adds
sutton
elephant
##erner
tattoo
graduates
wives
palms
verlag
therm
insane
specifications
idiot
cir
institutes
categor
##bil
inherit
patriots
interrog
criticised
dodgers
acclaim
jerome
venezuelan
stur
fuj
gras
intact
##ahu
debr
hew
indirect
##rea
##ango
##tail
##dia
leis
rows
filmmaker
saxony
incredible
nes
morton
pavilion
reasonable
mons
reson
gentleman
grat
este
miy
##auss
ruin
certification
cheng
##ako
revived
commissioners
ds
proximity
crab
eleanor
dominic
ruined
welcom
bundesliga
soup
atop
inventor
thighs
exploded
miz
qatar
contestant
mn
prussia
113
lauren
##onal
zo
repairs
detection
1827
wards
rendered
maternal
oath
societ
voltage
airing
thomson
##inters
hanna
krishna
broadcaster
maori
ceremonies
veins
prairie
ambr
youve
##sson
sharon
premises
payments
homeless
investments
damned
teammate
decreased
rector
christine
sidney
clem
anxiety
vr
##enza
roses
##ctica
tracy
##lean
correspondence
depr
liner
separately
##owl
flags
bess
darker
doctoral
funk
jenkins
conviction
technological
cooperative
hutch
morm
assert
gains
##erable
slaughter
panthers
paramount
deutsche
rotten
basel
zamb
##alan
shining
conceived
carnegie
raph
statues
##bh
avi
##urities
##cats
considerably
yas
artifacts
governmental
hector
hydra
exhibits
##vic
wong
attribut
estimate
everyday
rao
##entric
mcd
##rium
##but
##ologically
appropri
challenging
mortal
spit
kilometres
sinking
lovers
##ifiers
prehistoric
unpr
skiing
werew
1816
airborne
forgot
taj
squir
pension
chapman
physicist
soci
klein
gloria
crush
grief
hypothesis
courthouse
schl
unclear
##ws
ultra
transactions
ladder
prophe
##osystem
universiade
dwell
##rics
slim
##grave
##upp
##odynam
braves
jah
##entry
deny
lunar
regent
respected
pharmac
missiles
spiders
stripped
responses
swallow
##ск
124
berm
strictly
crucial
##emia
ivory
nl
educators
abolition
##zes
freeman
##neum
tragedy
slopes
jed
tradem
claw
spa
##inched
sworn
glared
anonymous
considers
vernon
particle
supernatural
aberdeen
inex
##plane
gregor
tucked
lj
agnes
fiscal
courtyard
flint
formats
peaks
jace
blessed
footsteps
majesty
preval
jonas
##post
sends
rehe
inaugurated
zip
politically
petrole
##edo
traces
huss
gin
aristocr
shells
introducing
crater
boyd
proport
ips
sherman
gymnastics
##iso
dawson
unofficial
css
##itas
superman
##lift
inspection
lumber
##nu
temp
specimen
wade
avoiding
cecil
whoever
##uras
##oqu
tart
loch
initiatives
##appers
##agic
##wen
miners
emin
##agonal
##hett
daisy
juda
sponsor
##esian
perception
sitcom
humanitarian
kerry
cigarette
##100
genres
sunset
cyclist
chun
surpass
ucla
upright
##aram
motif
pissed
forgive
sphere
accordance
investigated
clyde
fernandez
dana
##endra
needing
amalg
##ulous
subdivision
shoe
clue
visitor
awful
chass
cors
deliberately
malayalam
bounded
tristan
##bys
tug
als
salary
senegal
burden
##andi
mercedes
paths
malt
1819
calculated
1823
germ
slowed
contrary
civilization
jules
lankan
savannah
induced
##zan
mccar
eun
fortun
gad
##acio
##uga
vag
##irical
cracked
1806
##oped
vie
gardner
tae
flagship
za
contrad
santo
##atan
pharmaceutical
serp
kunst
consulting
underlying
woodland
quot
bombardment
pied
kah
dubai
##idian
lantern
telecommunications
nd
##itches
mickey
xbox
##smith
##alla
citation
forbidden
destiny
laurence
gymnasium
##igraph
humanities
mighty
shepherd
amalgam
fitness
##bn
levi
jiang
disturb
##heric
vacation
butterflies
ferguson
nickel
irrig
framed
##amon
reptiles
helmet
subm
muller
renovated
email
##atro
laying
midlands
dental
sach
##enues
interf
calder
awaken
spelling
conform
kras
furious
##roft
discussing
dove
neal
nixon
downs
lisbon
counting
1817
explored
nightmare
herr
insist
ribbon
membrane
escal
percy
crews
worcester
pose
abbrevi
noun
charm
disgust
curios
locals
habitats
##enas
unders
odds
##ordination
skirt
dess
humph
atletico
gage
##lia
cob
crimson
##through
antarctica
linux
dres
##yu
##hao
psy
canvas
contacts
bulls
pillow
desperately
makers
sociology
strongest
##leen
##getown
pottery
suspicious
salmon
skate
propriet
dixon
##pack
##ng
thresh
eyebrow
flut
sterling
pablo
nos
pomp
lund
accompanying
saga
##ни
clause
peruv
mentor
sailor
petroleum
ler
corrupt
##bage
falc
prohibited
##ellers
arose
##usive
turbo
##bat
##jin
jointly
locks
dion
##ymes
apostolic
drown
450
toys
organizing
stalin
floyd
preventing
##eches
madame
freshwater
duchess
advancing
##bes
watts
solic
keeper
curves
##engers
consumed
testimony
ridiculous
##storm
instructed
anthem
sponsorship
unde
scrub
##fred
sq
viewing
1803
##alties
sealed
resolved
smallest
errors
##lair
asylum
neill
ancestors
rue
teenager
##oso
disability
risks
##arte
##iu
##inging
##into
mush
##phe
detachment
##hips
foul
namib
##andr
caleb
acclaimed
burma
livest
exclaim
osaka
leigh
alma
consumers
reverend
favorable
##group
hammond
##cliffe
1809
jacksonville
castro
josef
settings
monter
gorgeous
sings
theatres
chak
advocacy
auburn
vl
hazard
##lay
prints
bullets
zak
##otta
##sing
##try
swimmer
haj
horns
gale
flee
alberto
falk
sunny
##inh
magnific
shannon
elm
smelled
complaints
finite
lightweight
##ogo
shrew
deterior
chronicles
allocated
parach
lys
1758
genius
embrace
southampton
sper
superher
trilogy
irrit
storey
intimate
valve
folklore
opinions
chennai
##osity
nurses
protesters
sniff
##ogical
ses
criminals
ked
##enstein
mitch
lill
rigid
hostile
##osi
static
contempl
pretend
silly
suck
##aden
##ultural
asteroid
bant
##ailing
singular
rehabilitation
matched
##geon
ende
suggestion
diaz
dens
snar
revision
badge
brenn
lent
freely
kamp
medalist
accuracy
deployment
allison
sect
##ithe
##otti
crane
philharmon
depicts
##will
roma
##tenham
weld
##isse
ourselves
sto
ecclesiastical
##ischen
sectors
mered
fbb
mandate
reliable
##opus
mang
shapes
verses
ava
shirley
##yna
unveiled
nay
##beck
startled
challenger
##itating
decorations
##kie
terrace
coleman
undertaken
honestly
satisfaction
performs
mcn
authentic
wah
kicking
mish
grabbing
##dor
##kind
augustus
cease
prizes
##esti
##bro
geneal
doming
##houses
portfolio
##rice
##dioc
ambulance
charitable
flip
carmen
##ayed
toyota
##abul
accepting
hampton
castles
stole
tian
entities
gripped
tc
##elles
skilled
assuming
rectangular
kut
invention
chateau
wc
##fold
pater
iris
flam
guidelines
mastering
frames
genuine
surrendered
##bard
android
dances
orphan
nails
pyramid
coordinates
archdioc
czechoslovakia
123
blades
mohammed
cret
demonstrate
toled
eli
220
youll
leisure
##iatus
contracted
decoration
##imon
handic
##hausen
##hran
superc
presenting
##esy
groc
protector
constantinople
sansk
##covered
infinite
##idea
slender
likewise
vatican
meredith
croc
ae
toes
bulldogs
incor
rca
neighbors
##86
puff
hos
clad
lacked
mistaken
tempt
donna
flooded
pang
commands
##imar
fiba
vanished
diagnosed
bro
raids
##jor
siber
##vian
dias
##anus
hij
vicar
uzbek
##oki
benz
exploring
##yst
refuse
poker
fruits
delicate
##yi
stunned
critically
1790
gos
lengths
davidson
cobb
bulletin
lanes
##maker
audition
mits
disputed
europa
eternal
stutt
##assic
##ainted
disputes
helsinki
religions
cute
themed
highlands
frustrated
abbot
battlefield
choosing
kingdoms
qualifier
angles
carriers
##afa
partition
synchron
##otypes
ecole
##phone
##hydr
##onte
mackenzie
ecosystem
##gage
imported
mph
sentiment
joyce
crust
textile
1808
molecules
##esia
sicily
gentlemen
estr
##pling
shank
##iformes
softball
##qual
isn
sanskrit
##chus
##loo
subordin
##isive
##iuse
photographers
countess
deciding
maurit
concentrate
##alu
villain
collier
waterfall
riots
congr
thy
ricky
savings
capability
promises
genesis
wartime
finest
stumbled
144
webster
rous
astronomy
seating
##ommission
guarantee
pom
yah
interference
bored
inev
careers
precise
postponed
drift
placement
coloured
circa
nt
clarinet
objectives
adjusted
sandstone
aviv
delegate
stain
irre
caut
ely
redevelop
trafficking
##atz
##imeter
beatles
twelf
##alli
##ylon
tunisia
zagre
revers
resolve
preceding
emissions
##amar
piper
nordic
countryside
reinforced
##atu
##ongs
mccl
enclosed
variables
tromb
spelled
nutrition
loudly
leone
noon
##ulations
twelfth
alright
carb
3000
hawaiian
##dled
lambert
omaha
##orth
##aby
correspondent
pounding
fres
blacks
punct
pony
##foot
modeling
##umen
differential
dealer
conson
prosecution
availability
echoed
##isely
barg
vacu
thread
sanders
heating
retrosp
unesco
andreas
invaded
detected
1794
breakthrough
aerosp
underwater
lima
bolton
rudolf
sizes
botanical
natalie
clayton
bs
##rock
##ogether
dump
factories
manning
carey
marker
giuse
##nis
provider
commercially
rats
linnaeus
highlighted
burnt
shiva
achieving
froze
emirates
obit
##iani
##bourg
tubes
##omal
discipl
##hardt
cambodia
benson
clarence
dissolution
judaism
licence
##nian
detention
immune
comprised
##pro
ballad
nave
mau
bombay
1798
##izations
reagan
doyle
usc
willow
holt
##mc
1807
##church
##utta
shire
successive
remarked
amen
facilitate
reflecting
georgetown
##aniel
recommendations
pizza
##attering
cumberland
immigrant
1793
nicol
tilted
bing
coven
##yc
ribs
invas
hire
smugg
remembering
kolk
governorate
watershed
haul
1811
lateral
##alling
integrity
laurent
pirate
##amoto
##onen
branded
hof
sooner
salam
organize
dairy
##horn
gim
theft
sharks
1805
##akov
devils
continuously
advances
penc
longtime
ecological
mollus
presumably
downstairs
restrict
##onda
zagreb
kc
##eze
linguistic
fitzger
equations
##ounters
altogether
pue
##wara
peruvian
kne
sleeve
juice
osc
acute
contempor
sob
twe
freeway
italia
valued
parted
fists
screening
madonna
##db
narrator
drifted
rpm
mou
infect
uci
pneum
phantom
stamps
##enny
##uni
survivor
midland
jagu
reservation
supposedly
verte
hick
encounters
##unting
venus
shawn
toledo
uniforms
disappointment
exercises
tko
1804
communicate
deserve
accommodation
##mod
jessie
##rahim
##iliation
ghosts
mhz
emeritus
expectations
subt
##dorf
snail
taiwanese
pageant
decorative
torres
monarchy
consistently
handbook
jol
click
caesar
dioces
##ogenic
madras
mord
rockets
tallest
stance
bred
jax
##ucci
complications
##alled
cheshire
peers
ranger
bax
tire
peterson
brooke
wishing
peripher
wen
td
##ryn
isabel
bergen
##ipse
complained
timing
noct
buckingham
mvp
##75
seeks
urs
velvet
cylind
projected
##ledon
speeds
hau
welcomed
sof
whip
isolation
shap
rita
enrollment
##ра
petty
schmidt
stuttgart
brett
##iona
bubble
comparative
tud
juvenile
##dar
fritz
##cence
auditorium
##iker
lago
##ст
reper
exchanged
obtaining
eliminate
##ipel
realizes
glowing
##lude
gibral
mae
##shot
gown
phyl
eleventh
kub
wink
##aul
schw
pioneers
minerals
kens
ashes
organisms
crushed
antoine
grandd
struggles
etern
tibetan
collaborative
fitzgerald
gwen
##birds
haiti
##uver
proceeds
kashmir
zoe
bonn
synopsis
remnants
goose
unsuccessfully
staircase
erin
pockets
libya
1802
hyder
##eti
subtle
haunted
embarked
directory
gibraltar
shuff
##atas
phones
##uana
polytechn
requests
archdiocese
##anson
##landers
positioned
flem
sinclair
hyde
marty
eman
bryant
communists
livestock
generic
reporters
lup
giuseppe
imaging
dive
sheikh
donations
conservatory
blocking
##than
byr
emigrated
endorsed
##athlon
inscriptions
newer
##istrict
ankle
terrified
lacking
##acia
##bern
##akk
stealing
reopened
prosecutor
herm
explosive
stint
##gren
sheer
##erick
investigating
cops
surgical
##ombo
##space
troubles
scandin
##icating
##nick
##xy
angola
tess
##print
digging
exeter
reviewer
astronaut
filter
intrig
##akala
multip
dams
kidnapped
riverside
modes
fischer
##ouched
violation
quarry
irving
penguin
cursed
threshold
jockey
crad
shooters
##ollen
hassan
##cements
anthropology
vass
algerian
holidays
gasp
gull
collision
suspicion
nicarag
adviser
dd
hastings
##endon
marching
rapids
##garten
krak
cw
invested
gop
assumption
lus
gravel
eros
carnival
blown
physi
genoc
babies
beaches
chips
lesson
stephanie
norwich
starter
1795
laurel
1796
##shan
hartford
rubbing
torch
##arity
ostr
dissert
plaster
##eke
winters
advocated
##ostic
##pta
nods
hert
stats
chern
vars
viking
##emi
hitch
default
134
frightened
info
broncos
bluff
module
macedonian
perpet
wicket
telep
##jud
##xx
dodge
towel
fundra
aerospace
canber
rehears
spher
nim
trash
divide
lorenzo
middlesex
##atore
ellie
fungi
mare
blamed
complexity
##elic
controller
##pora
comparable
oph
beef
primitive
##anas
owing
##mb
schemes
loading
##zburg
addresses
ibrahim
##ibal
iber
agenda
##uting
##atur
##abling
##ogene
dix
expressway
##ibald
embedded
matthews
outlets
lindsay
##jord
mentally
protested
##kow
bolog
llc
sanction
methyl
##fried
decommission
encouraging
nair
dagger
gros
##hot
1789
beaver
lineage
cyt
##omez
johan
titans
binary
endeav
skiers
confer
commentator
icelandic
vaccine
systematic
aless
corporations
##matic
cove
##vant
terminology
rides
dz
smok
substr
mets
trembling
kidney
fow
nw
qb
nerves
##jani
empower
##elo
meadow
##eka
momentum
andhra
glancing
upward
asset
embarrassed
##ologic
drainage
expense
container
seventy
debris
elliot
##gling
precisely
yacht
templ
kuwait
enz
cull
outline
##arrow
insign
##ande
1792
jh
##otechn
##hof
##heads
armour
helpless
stip
##stit
niz
##kk
providers
##ritic
aided
##tes
conversations
knocking
##yg
holders
##aternity
preceded
gob
cain
gd
omar
##ographed
curiosity
marginal
##odz
gateway
ump
terrestrial
shelf
photographic
transmitter
saddle
canberra
plaque
unst
sweep
anybody
##hele
ginger
accol
informal
illustrator
generating
sided
limbs
##amped
##izers
aden
batted
slovenian
prose
##ser
##ariat
henn
##tures
tavern
##rap
##keepers
crowded
bacon
vera
valencia
occupy
honda
##abh
gb
applying
##yen
##olling
accredited
##flix
##onshire
##arya
buddha
rowers
##thood
##oge
landown
caled
talented
rn
catches
vijay
posthumously
tribunal
dialects
destroyers
devi
papal
wimb
abn
albion
obey
worthy
##abulary
bryn
lb
wheelchair
enthusi
shields
kyiv
gastropods
offshore
cv
##bons
tapped
theaters
coupled
evolutionary
sophist
incomplete
viral
intentions
lucia
trun
##electric
kry
dudley
##heed
measurements
certifications
##rique
240
elisabeth
##oise
wi
##rish
##31
statute
dap
mural
newark
titular
pga
kerr
basically
teddy
brav
antwer
skept
omn
mih
suited
##imi
mccarthy
toby
ronnie
screenwriters
##bria
unch
##mud
##aise
bella
ere
##olar
thur
patterson
##avers
undergo
outfit
documentation
##amba
refusing
zel
viz
cac
##inch
##andan
diane
##88
anatomy
congressman
raphael
hugged
professionally
claws
plague
##ardy
whale
arabian
gomez
ks
controversies
1799
ping
simulation
parody
##iseries
shay
##club
atmospheric
ald
pastoral
dresden
nationality
paraguay
organs
disco
latvian
pasc
pagan
##esi
ort
rely
suffrage
tray
##onomic
clever
insight
##iciary
##word
1600
emi
wad
##ahi
arlington
reflects
agn
coordination
polymer
##jee
wak
haired
metabol
##rosse
suits
nz
owl
chassis
judy
aure
fails
celebrations
belarusian
conquered
screens
extant
willis
peac
breakdown
##olithic
tina
##jun
##cot
##ups
##gee
composite
miniseries
corr
##estan
ravens
prophet
penalties
brewery
##elius
racism
couldn
marketed
jacobs
kolkata
##armed
##ovsk
linking
benny
tus
decay
trauma
exciting
narrowly
##erville
canceled
laughs
##base
piv
scarlet
valleys
reunited
faithful
memoirs
rouge
constable
combining
diamonds
##sha
logical
astronomical
bees
rp
metac
##rob
employer
exceptional
##eer
profits
bliss
sentences
gyp
pays
scramb
demolition
wimbledon
##ilingual
immortal
conting
scholarly
cadet
unse
brutal
bump
surroundings
mour
mitt
bays
endless
netflix
coy
vikings
bottles
##jon
intensive
guides
lacrosse
yong
enlarged
##opters
xen
atlant
develops
##iban
jum
incorrect
transgen
brat
arbor
stella
technically
winchester
ashe
##rest
byron
121
forestry
tended
##affe
##yar
striker
grasp
angelo
mongolia
opted
##hm
schne
##ulin
##0e
overtime
monetary
metals
automot
lv
fiber
stretching
gior
bordered
shooter
colleague
segreg
latt
complaint
dressing
consortium
schwar
##stop
ia
distracted
mapping
mash
##mented
##alom
macmillan
inequ
##ometer
fisheries
lapt
barrett
damon
wage
##ibus
chaired
levy
monarchs
overnight
swir
lau
zhu
puzzle
vacuum
alps
teresa
gandhi
cough
##hne
beverly
smir
wears
hatred
seab
weber
portable
combine
samantha
##gel
balc
jade
partnered
woo
mound
##eyer
##lamation
##bold
##wana
pearson
ligue
gambling
pg
multim
cooling
bbff
unaware
##enches
gis
remake
fitting
ella
precision
##agara
inventory
needle
activism
bbffbb
pee
aph
capturing
macc
semifinal
anticipated
jesuit
advancement
##hole
chromos
ramon
answering
versa
shoots
duet
expenses
excessive
judith
ideology
magdal
##zyn
lineback
prominence
vint
emmanuel
corpus
expressions
lenin
aly
revelation
lea
archipel
homest
##escope
securities
surprisingly
##ophyll
drill
gujarat
curator
122
volks
##inald
conservatives
bran
amelia
alk
depths
automotive
drained
deserved
cameo
questioning
bean
leap
surreal
##lis
phillies
legitimate
abbas
popped
abel
cey
tailed
caution
contributor
boul
1880s
resided
venet
##building
shattered
operative
plasma
rna
vegetables
reprinted
depictions
##ophob
nys
sofa
engaging
tehran
guru
##rent
aesthetic
camden
het
pike
##qi
wheeler
pau
unm
##ascular
terminated
discharge
rumors
parameters
ais
hernandez
typhoon
##athetic
tomatoes
##elihood
confess
kannada
rans
##adin
drank
newcom
digest
oversee
adher
laboratories
cowboy
inning
##asaki
void
cald
barton
sonic
danced
##omena
porto
regina
carlton
pronoun
##enov
jog
##77
##unders
vom
incarn
##itha
naw
##unciation
menu
wein
dundee
seasonal
destinations
visa
horace
intimid
feb
impair
reversed
telescope
varsity
slavic
limp
louder
##odon
refugee
sensed
knuck
antwerp
cope
adoles
vfl
##oton
##atti
##ulative
cron
oppress
maneuver
kav
descendant
shirts
bip
hellen
crom
##oco
conventions
toe
arth
whisk
baghd
##adia
##bred
pter
shab
analys
spoon
helicopters
acet
cultivation
backwards
##prof
smash
dl
irr
##forms
mice
chew
dunn
vince
dn
dolphins
gc
basque
correctly
financing
moy
beloved
builder
##eco
plug
haleakala
synagogue
practitioners
sans
tricks
mcgr
enacted
reluctant
sandwich
glare
installations
adri
leased
##ße
##aird
spill
bahrain
corpse
hare
50th
kak
spectators
premium
knot
elb
##comes
##mor
transc
##now
weig
advocates
whistle
wien
huang
enlight
dalton
hectares
irene
pens
##arius
1797
sophom
##eit
##vey
##baum
essence
poul
examine
philharmonic
emm
##ril
##isal
tugged
##hampton
##ippers
##tw
lemon
platt
cnn
##gg
moan
charted
gree
##pring
##ushi
ryder
stoke
bae
trends
wolfgang
weakened
mister
barker
switching
redesignated
marriages
campeon
soy
megan
conquer
logistics
whispers
mega
randolph
hazel
masses
daniels
gould
sculptors
zombie
biod
wanderers
anticipation
pueb
buchan
trademark
segunda
burm
##oupe
squeeze
gat
groan
##inkled
##urned
astronomer
insert
expertise
pipeline
mao
dans
celebrities
stagger
fas
semic
throws
sten
##ulates
optional
consecrated
##like
trades
moroccan
##elage
reluctantly
hoy
similarities
robe
identifying
regained
edith
sketches
lans
homepage
virtue
##oub
phases
spiral
cbc
shortened
unemployment
screened
extract
upgrade
##alk
energ
mercer
##istle
preacher
dupl
viktor
midway
elvis
appealed
jup
coronation
descriptions
buchar
compuls
##adian
genocide
rath
nrhp
genome
dmit
abbreviated
##arf
hyderabad
##aires
##ersion
launching
surveys
mohamed
randall
##elet
tetr
qualities
interd
duel
elegant
1776
securing
##lane
lucien
bram
constituted
##ioned
loosely
##itational
buttons
##lace
bronx
transmitted
##istically
##iw
dm
illusion
saturn
commodore
predators
##emberg
peered
snakes
sediment
babe
verde
contacted
nuts
dissertation
alignment
##hea
##kson
scenic
merry
constituent
feathers
steele
nons
affecting
arous
cone
##eee
blowing
remarks
daytime
spells
obituary
##ipei
rajas
##osaurus
modifications
##quis
pursuing
honduras
##ifolia
prohibition
neu
eclipse
210
fancy
enhance
##iffs
stems
polbot
weekday
##amous
anast
landscapes
gou
aaa
envel
cory
pras
ethiopian
##200
persuaded
quantity
##las
##inqu
wn
villagers
defines
scan
limitations
damages
##shi
##advant
bucharest
euph
##hus
eased
##arat
hansen
##horse
gloucester
tipped
envelope
instances
erie
retreated
cane
##xide
##odont
rup
clube
sci
steadily
clips
pratt
alison
##umann
daylight
gide
##zt
captains
##85
differently
bhut
lounge
1791
professors
deity
explicitly
biochem
chemicals
borrowed
taipei
sovereignty
podium
weston
realised
preference
reproduction
kost
tributaries
##kw
christina
##fordshire
##mington
profound
bihar
tendency
evelyn
greeted
romeo
troubled
airways
##nings
disadvant
autonomy
eyel
nineteen
tant
shine
kimber
##sover
publicity
broader
saves
enabling
archipelago
wrec
aurora
williamson
repeal
pitchers
cunningham
##anu
compatible
balloon
aquatic
jubilee
##arra
hissed
hash
supervisor
zap
sandra
sexually
doom
subtrop
pupil
chartered
abdullah
guardians
nue
acids
sams
coventry
##chaft
avery
nationalism
marse
hierarchy
tiff
##iston
bermuda
##akis
campeonato
visions
finishes
umbre
##arton
excluded
storms
shotgun
synthetic
##araj
eighteenth
derives
turtle
jewelry
specification
##aland
directorate
effectiveness
constantine
radius
pv
##icism
tamb
nora
adaptations
stig
clash
crescent
amino
loses
nir
muff
patriot
dedication
##cephal
scenario
aliens
trailed
madness
##stage
##stones
summoned
antio
bologna
messenger
preparations
distances
augusta
##court
precurs
fulfill
##65
donovan
##ska
##rov
exposition
banker
bum
seym
shear
useless
terra
pbs
reyes
1890s
sok
nil
adjo
oman
precipitation
bucks
alike
eul
punches
happily
regener
comeback
fuk
niece
##ellan
##angu
tau
cellular
observe
balcony
##eaux
gore
##gence
stag
kins
bonnie
##heimer
##okee
hanover
hess
##derland
perkins
darren
falcons
sweetheart
straightened
##cule
linguistics
mobility
commissions
higgins
publishes
##children
avant
irrigation
##hop
adequate
##izable
affiliation
##abl
albeit
slate
pity
rahman
skaters
inception
renewable
£1
elong
bez
chemist
haus
reapp
dover
shouting
toilet
##95
nigel
##sbury
tutor
compromise
hymn
brotherhood
regulated
smack
esper
dorsal
ruff
##oran
fingert
advantages
##fest
cousins
werner
sis
incons
thirds
pleaded
brittany
braun
##itone
paler
galway
incorporating
empl
puppet
accordingly
sock
ub
wherever
tasked
catalan
xin
##uity
undis
##lements
##ulia
exceptions
moonlight
robbie
230
inflam
sexuality
yanked
granddaughter
nell
warwick
regards
jug
yel
nielsen
luna
christie
robust
##esome
##islav
turks
bt
emble
##gil
teachings
natives
coug
mozart
ave
loaned
folks
progressed
competitor
salis
transgender
##thor
homestead
##abr
charming
hanc
##grove
songwriting
##otherapy
talents
##iidae
driveway
##rep
calcutta
satellites
strips
privy
meyr
royals
##iversity
jamaican
insuff
##byshire
ought
##dington
##iasm
rae
##acker
micha
chasing
vowel
expend
##grass
mormon
blackburn
30th
##iances
##adic
##fil
suther
##lich
yearly
upp
medi
ventures
acceptable
flemish
hbo
breach
motorway
suv
speculation
tends
schu
una
1700
subtropical
nih
slapped
venom
wendy
pyth
myers
crowds
##itsu
chow
heel
##ands
tensions
inact
tl
smithson
##ilde
compart
specialty
sued
##ende
##bear
##ichte
termed
feedback
organizational
aging
5000
arrows
boring
celebrating
marquis
eighty
audi
constellation
carmel
adren
shipped
gunn
##sb
feld
favored
genetics
sparks
pathway
##ometric
tes
dose
##ieves
worm
ricardo
skys
clas
verbal
emerson
##bag
submit
algorithms
loth
flanders
motivated
24th
anxious
mayo
disbel
simmons
boulder
undertook
distress
displaced
##wright
caring
disqual
embry
ghanaian
bally
##owo
kart
##uddin
xia
1780
rhet
##achy
conception
cycles
##etus
treating
derbyshire
howe
applies
jp
loot
##uria
turin
dimit
rer
resides
pianists
employers
purely
divisional
attributes
colts
##ungen
##urus
hain
mayer
cao
patience
palat
vista
shog
twil
specially
luft
heavier
parkway
ingredients
confession
lorrain
spor
paved
chung
##antan
suffix
gazed
##aren
vod
passport
oaks
excer
parsons
chau
vigil
balanced
##tera
bloss
vc
rebrand
hiking
bothered
designing
robb
##pered
clifford
namibia
ceremonial
livingston
showc
##anteed
alam
skeleton
computational
firearms
##arded
grun
##empl
burmese
symbolic
##cus
mai
spectacular
appreciation
guaranteed
wingspan
wages
teaches
seymour
nikolai
ego
forens
recommendation
licked
angus
corv
patriotic
##plant
anita
kov
domains
archie
urb
inflamm
pseudonym
brod
sophomore
##jer
russians
inheritance
guessed
kus
serpent
choke
mistakes
papa
tobago
basilica
sop
thief
##azzo
monasteries
fraction
bowed
vog
lass
outcomes
passer
hallow
db
##with
lafay
succeeding
##jana
##stroke
##dock
accolades
kant
##osaurs
implications
##alypt
stays
hawkins
gideon
taller
##uber
walton
phylogen
tumor
nazis
socio
133
philanthropist
flatt
132
insurg
sensit
gloves
hardcore
##arth
functioning
lepid
##copic
pamph
exclaimed
weiss
roar
rogue
pools
violations
22nd
salvation
substantially
determining
caliph
aeronaut
grig
ethical
foolish
abe
ache
waterloo
snorted
##lance
inmates
##acao
lengthy
jerk
assam
antis
motto
sergio
mozamb
mathematicians
stuffed
halted
uncertainty
meyrick
detached
tt
##aline
assyr
addressing
greenland
tubercul
blunt
##ecting
tops
tres
paired
##jas
sympathy
defeats
rented
slipping
##lide
gluc
ngu
normandy
cannab
##due
lafayette
sutherland
##sein
incredibly
utilized
clusters
vocational
stubborn
preparatory
cerv
##umont
yoga
disabilities
arrog
scorp
amended
translators
nassau
cherokee
antig
##illas
screams
bols
ori
resemble
socialism
champagne
poz
berth
##jet
retaining
aligned
##asted
##uded
additions
payne
adul
impacts
##iltr
isles
##soon
##illion
traits
sonata
##herty
dus
thal
capp
paperback
compliance
##oos
betrayed
naomi
weaver
reformation
##isen
mascot
##witz
scanned
hopefully
disappearance
watches
gamma
orchest
##yss
carlisle
##mere
frankie
unnamed
ambitious
icc
##zzo
columnist
erotic
christchurch
ceylon
malik
throb
excluding
annoyed
submer
venge
licensing
irv
teamed
labr
nightclub
kindergarten
chil
ancestor
niss
charities
captive
lotus
capped
shrie
collectors
uran
conceptual
##combe
catholicism
magnificent
amn
apology
confined
rivera
costumes
defining
flynn
##atr
##idia
fry
##uala
traders
adel
##abar
spatial
kass
playwrights
##orah
##ayev
##ijuana
mortality
joa
##rise
excavations
scrapped
pasha
cloak
nasty
strangers
bias
##odies
hairs
zhou
reflex
berkshire
fals
##copy
postseason
##cely
23rd
metallic
paz
##alach
sensor
ramb
monaco
amor
exotic
ferrari
vy
practicing
dominion
tunes
pert
append
okin
kurdish
stevenson
##aldo
comedians
flexible
matric
transcription
punched
injection
packers
bangal
proto
##ulic
swinging
##ods
peasant
sylvia
escapes
automated
xii
psychiatric
wester
##heid
jupiter
##wi
##hawks
enthusiasm
##burger
tally
##aurus
wurtt
samoa
shifts
lizard
nonprof
jacqu
twilight
baha
prolong
##iary
dorset
1783
marcos
peculi
##icides
##lifting
teammates
##ologue
memorials
baghdad
##makers
##omagn
scrap
sauce
##arina
conflu
wyatt
prolific
therap
pinned
originating
frederic
##itty
deposit
diz
possibilities
fff
gilles
tortured
shipyard
farewell
miniature
chis
hague
starr
polytechnic
grinning
regain
recruiting
teasing
ensuring
sek
salisbury
fleming
mafia
prayers
##see
billed
##ectives
accusations
ineff
disciplines
peaking
greenwich
##otypic
ads
transaction
javier
##ecute
interfer
conclus
chong
##usions
trout
##pres
cesar
rall
abbott
participant
pipes
quantities
botanist
lich
capitals
igor
mumbled
##ocyt
assignments
lime
dexter
meadows
demonstrations
##itsch
sneak
indef
##itta
prefix
##conn
##ongh
augustine
itunes
pioneering
hered
manch
beir
uncommon
seeded
resol
##raz
tracked
krakow
##shaw
sophisticated
##acs
brend
alfonso
##uo
##rak
wildcats
##yards
hmm
##intosh
##ucked
donation
##escu
gloucestershire
##yang
##ogues
murderer
upt
brewer
dramatically
tanner
orchestral
ranc
lethal
aragon
hancock
bugs
evacuated
disposal
##64
innocence
outsk
barth
##quit
equil
hiatus
jakarta
kaiser
##bas
dealers
vanessa
appreciated
strick
sey
##avirus
infiltr
freel
greeks
chord
teenagers
##ounded
lymph
paula
##utz
ged
tuck
ieee
developmental
rodney
treatments
##pot
coul
reli
garnered
fiance
blend
delivering
chandler
maw
suspects
##flow
somalia
wurttemberg
robbery
pah
fangs
float
regg
pett
imagery
discoveries
lorraine
##thia
##even
1788
##zew
continuation
peasants
trustee
abundant
gund
casa
displacement
##kers
kand
##aye
##enb
partnerships
sj
notorious
##hee
incent
realistic
##ulla
hobart
trench
ars
butcher
tires
karachi
tonnes
chaplain
cultiv
##long
dic
gestured
reperto
slower
induct
satan
owed
##ogie
coss
excerpt
bowie
hubert
##oids
midwest
razor
leah
jain
##hat
neon
veronica
##oit
clown
cavern
metacritic
finalists
labeled
witches
justices
##hang
rotter
sands
bowls
meals
supervised
asym
voter
floods
kes
motiv
terti
##odor
##yla
gifted
solidarity
myc
tilt
coeff
pitching
orchid
delicious
650
commemorate
alexis
appointments
rental
marvin
##osphere
kyoto
implies
outskirts
readily
##lig
preview
sigma
leuc
damien
emergence
bmw
##awan
nach
##adan
##imal
locate
##ontinental
skyscr
mccart
##acies
renault
node
##atisf
oss
ordn
hk
addiction
bisc
claudia
##cho
amused
stunt
silv
dramas
charging
accompany
orbital
olivier
whir
garde
##ptions
##ghal
cush
athe
paolo
lexington
foy
minded
portrayal
##oel
disturbed
spont
commercials
jude
##umar
lowe
##ilyn
decisive
emerge
polls
vintage
refres
fixtures
rover
1200
oceania
##agus
bracket
goat
vein
drowned
smithsonian
hue
##frey
havent
##ipes
constitute
strained
annexed
thoroughly
sorts
meantime
unmar
pots
uruguayan
tones
neoc
scow
umbrella
dude
##coe
cody
##iad
##alay
playground
exagger
indy
librarian
##isie
hawth
ios
resembles
hedge
juliet
hostage
awesome
banc
attorneys
naut
rama
differs
conway
seaw
facial
stroked
sponsors
endow
wille
##rose
germanic
selective
bangalore
rai
centr
entom
perpetr
rituals
daim
maus
##vy
sadness
coward
sodium
dismant
woody
##aret
elders
apologize
fascist
winged
##ikk
artem
plung
trailing
prone
eliza
hesit
##lew
limb
attained
sb
persecution
verdict
residency
agon
fiona
##athed
outlet
sidewalk
steelers
cultivated
classrooms
facto
elias
##arse
histories
catalonia
amos
speeches
moldova
plaint
partisan
harriet
##leased
suk
phenomena
reactor
apprentice
hurting
generator
shiny
tertiary
qa
##olome
unsp
encoded
jennings
ornith
shack
resistant
silicon
camping
bn
baba
showcase
dwight
carrie
phrases
##haven
medley
forts
cartoons
alcoh
periodical
judiciary
nursery
jans
dei
arches
##onga
##icultural
comparing
##esque
lincolnshire
soils
131
tand
confrontation
liberals
austro
triggered
##asting
repet
pretending
##opath
brood
##pleas
stephens
folding
tz
confisc
slick
aidan
mali
nolan
detained
sheridan
overlooking
liquor
ambig
sonny
nicaragua
zambia
metric
dynamo
ust
robots
refriger
racer
superf
##icol
indication
surveyed
##isans
outlaw
brag
scary
processor
chamberlain
##otus
unpre
barriers
evacuation
yen
convict
emphasized
compassion
##vik
distract
##park
quin
patents
mushroom
brac
piers
passive
##iste
matth
##alid
dragging
ditch
nathaniel
antenna
continuity
fortified
isot
##aste
admiralty
unhappy
simone
cliffs
schneider
##org
bray
repertoire
lara
merge
lester
##actory
reginald
airplane
triangular
televised
factions
wholly
seals
leak
residences
1787
electorate
sticks
tulsa
unrel
scoot
vanderb
unusually
lahore
bucc
urg
angr
ballads
accepts
##ayana
##aci
monop
frequencies
overth
confronted
labrador
bots
reilly
ench
discl
unreleased
cleaned
yer
europeans
##67
arb
purchasing
##icles
daemon
nodding
wilts
hust
privat
azerbaijani
##uben
biodiversity
grape
overhe
nail
tav
##amps
whim
brigades
strode
##quel
##uti
berger
##89
##orian
ordering
nish
compression
inferior
catcher
##ibi
giles
##manship
paternal
lein
downstream
psychologist
realization
ducks
pharmacy
talbot
##iscip
##stant
gaza
disappr
erupted
examining
circuits
scrip
recovering
swiftly
aisle
##hf
warming
edmond
##plus
reminis
picnic
resume
regency
compare
afro
heartbeat
experiencing
nitrogen
amphibians
##iatric
##drop
##adequ
behavioral
rotterdam
deton
toul
##omial
waving
gossip
honorable
waver
gdp
migrated
coined
generous
aluminum
unsure
laptop
defenses
owens
perspectives
contractor
mls
tiles
##fields
finch
poetic
lagos
goa
censorship
hypn
scouting
scare
cretaceous
macar
kathleen
gaul
##zman
becker
##rays
francisc
gubern
ipswich
decommissioned
melanie
steward
gong
grocery
islander
inadequ
compliment
flaw
##ooth
ignor
detain
retrieve
##hany
##arios
dahl
raft
shores
discovering
unnecess
receptors
##hara
glimp
seiz
escaping
polite
apex
slap
yus
##на
turt
##atches
##giving
dared
crystall
ninja
esther
weighed
##yre
vivid
candle
magistrate
##stick
birch
ashton
broadly
offspring
allah
positively
usl
biting
substances
xu
##cal
rude
els
psychic
eduardo
parachute
hai
guam
investigator
coffin
ordnance
locker
vivian
killers
targeting
##gos
demise
fors
clap
burnett
administrators
glimpse
caucus
noir
freeze
##boats
stereo
##quest
campuses
mara
revenues
scrut
##etal
##inking
taw
xiii
axe
barrow
patrons
collectively
slab
incorporate
dane
##icy
##isphere
congrat
rapt
kip
occurrence
bertr
lening
eject
lionel
brennan
staffordshire
vanderbilt
mortar
oversaw
harlem
sharma
152
peculiar
bulb
vad
announcing
avengers
freezing
patted
##anka
##apeut
fou
##law
vaud
posterior
exempl
kag
##inating
phi
presenters
disasters
##undy
##oshima
##ijah
routledge
inserted
spaw
##sal
esk
##ogon
dru
teased
nonprofit
##mitt
a1
##isson
haute
apt
weve
kall
dukes
midst
seld
ville
fencing
elf
seaf
respir
sentin
##olla
panther
intend
##worthy
leningrad
##kill
wolfe
##itism
##apo
cooked
nucleus
dreaming
tempo
diabet
admired
expired
yuri
vols
lawson
heats
beams
superhero
gaut
bests
pork
extinction
minorities
assessed
seine
trich
survives
##inen
surgeons
goddam
dob
interval
kidding
judo
clair
crum
##green
dusty
confirmation
hoch
320
prat
reloc
##oway
trol
##ahar
declaring
lamar
debates
enables
pact
stil
ome
mckin
tragic
burlington
deserted
ile
##irmed
laos
dhaka
activation
bfb
##cidae
affiliates
harley
hurricanes
pors
##ahr
hasan
##onyms
anterior
leonardo
##tec
rm
##ioni
##lake
sufficiently
hayden
confluence
batch
werewolf
reasoning
wrapping
theyd
touches
ammon
##itian
wrists
mona
cassette
sympathetic
accomplishments
winding
##icle
thess
urdu
panties
eternity
merchand
sacked
sergei
550
labs
##inished
##awl
##axton
incorporates
weir
rosem
backpack
260
cong
suzuki
fade
traum
squares
andres
caste
barack
dwelling
railroads
duss
announces
##87
invite
jokes
calcium
oj
repaired
judged
herd
io
denotes
pedestrian
implied
sweeping
##approp
laund
condens
brake
multiplayer
spanning
escorted
pest
rusty
gubernatorial
lava
fringe
universidad
bloc
garion
afric
allegian
##apers
##rae
##odus
saunders
ismail
aye
##uld
wond
##uating
zack
ada
havana
waking
sights
nominees
relied
fortifications
affects
snails
beginnings
academia
frant
##ulse
beirut
apache
##iton
proportional
luigi
##onson
coh
aspir
roh
tsar
##encers
transparent
mammal
arte
registry
inflation
treason
tapes
##enk
racec
usher
melted
bhag
vaughan
oscill
marxist
despair
introduces
thornton
owe
polling
communism
alias
subdistrict
null
diab
##gia
platoon
combines
diaspora
rfc
climax
penal
cud
protoc
prisons
##ussy
jumps
##imited
##entin
financially
northumberland
jensen
deacon
shipw
modification
ayr
205
economists
stras
solem
##aras
specializing
stabbed
sunderland
coordinate
bp
electro
projection
protr
##guer
##parents
##asus
derivative
ensuing
solved
shades
moaned
dominance
garbage
fraternity
##osia
theologian
asserted
amir
klaus
##agonists
kirby
##alle
##fax
rach
subjected
dignity
attitudes
##onge
extensions
triv
141
stressed
270
aiming
exploitation
possessions
cue
##asco
reproductive
ether
scal
buchanan
reduces
outright
tighter
sensors
hyster
##rem
renewal
negotiated
##69
indefin
declare
ministr
teens
##hening
poc
sustainability
mirrors
retrospective
upload
peel
choral
breasts
genoa
##ozo
burk
280
##df
tuberculosis
alain
##ulton
mens
splend
unfinished
peerage
##irez
mcgill
underworld
##arc
choked
abr
rotating
fingertips
##hh
quir
##ieres
##bral
atoms
cuc
sioux
werent
rhys
##ulo
carac
shelby
cocon
tenants
chimney
gerry
degrad
rhythmic
carth
boiler
marrying
taxation
arise
##cers
##oller
expressing
##chem
143
dt
##aney
heck
lr
scars
hail
1784
submerged
bung
bans
arabs
declining
km²
crosby
##rez
bia
##orno
styled
mattress
goodman
jeanne
greenwood
##umbered
alej
whipped
definitions
##dh
incon
keller
##ongo
##afi
corporal
fidel
hermit
##arro
unfair
1870s
enric
##idis
synod
blessing
hesse
lydia
twitch
paradox
##tham
##prop
diplomats
bangladeshi
##nica
swore
assassinated
##agher
commuter
fowler
##eros
obstr
utterly
polished
topp
proposition
fragile
yog
stripes
shor
nikola
sorrow
mozambique
##oza
macau
baxter
fy
crude
##omic
commentators
harb
lax
bizarre
announcer
geometric
infections
masks
pius
aloud
##acan
investigative
nets
insufficient
wb
advers
225
meditation
progression
panzer
##edd
jong
browne
wholes
vitt
cardiac
selfish
2d
shrug
auf
individually
gasoline
statewide
stirling
1900s
dillon
necklace
cary
necessity
rajasthan
##eric
diabetes
nib
rbi
##ер
outrage
networking
filmmakers
raff
crisp
negotiate
##ucn
bosnian
adjoining
##iera
wiltshire
##iar
lept
##irable
wandering
waitress
restruct
1777
turf
accreditation
lena
pug
ceramic
clive
sass
acquiring
knives
bruins
illustration
hemisphere
syndicated
##jak
prud
cannabis
damasc
frigate
##chet
nhs
contamin
26th
byrne
presently
##iked
hogan
sideways
tele
statut
cag
subscrib
posed
beans
drac
shri
##osta
##onde
##ayat
##glomer
##sv
courtney
archibald
crashing
##inga
heidel
assim
knob
np
scripts
haut
bucket
reinst
erosion
investor
mariners
lom
productive
##insk
##words
coupe
pillars
orioles
chol
breeds
suppressed
##asmine
sunrise
delays
edged
conscience
barbados
gable
tractor
equilib
subsid
financed
cassidy
##42
1781
karate
groove
rale
motivation
borneo
convincing
lennon
replay
kiel
##abo
aristot
##icho
##ikos
mansfield
packaging
prick
zimmer
everett
##ibo
baj
saul
corinth
##path
solving
buk
inclined
prejud
springer
cries
upstream
aval
turbine
##headed
bavarian
uzbekistan
iconic
warden
arranger
observers
##atile
nobles
disbelief
kits
competes
musik
panor
conductors
documentaries
##isciplinary
##72
##shit
perimeter
sega
passionate
obliv
##omatic
pilgrimage
investigators
secretariat
flashing
resisted
listeners
##angi
remod
dinosaur
scoop
wakefield
kendall
##qa
lilly
habits
##jack
numb
paleont
schwart
cara
crawled
cosmic
transp
satisfy
beatrice
forear
venetian
strokes
lacks
sous
##retion
bahn
tablet
rejection
reorganized
enact
imam
cypriot
polym
trous
##achim
yep
nept
##liner
markings
apparatus
devotion
vain
##igue
dispar
dai
limerick
jem
cardi
memorable
rebuild
pietro
thoroughbred
kud
handing
wigan
exports
johannesburg
crossover
kitty
realism
nicola
rin
saxophon
ramirez
undefe
archived
synthesizer
expeditions
bacterial
gabe
##identified
fraz
victorious
sparked
##itte
updates
##enes
viewer
jays
occupying
julio
##olent
##mie
halloween
agony
grandma
barns
curb
checks
##usz
gymnasts
storyt
refusal
wich
27th
coordinated
exiled
earthquakes
inacc
muscular
tolerance
isabelle
moody
eponymous
##bruck
colombo
metam
sixteenth
flats
inability
##puts
curry
##ells
bureauc
mustang
darius
rite
rf
priory
##iformesfamily
##flower
##ffe
physiology
inquis
beacon
begging
##mac
guin
swansea
urgent
lifelong
obso
##ecker
nominal
clary
outre
##pie
feng
emerald
tessa
infectious
wipe
appalach
tremend
weekends
##atl
harding
1778
zhao
whereby
grandchildren
multimedia
bolshev
transferring
##jing
rhy
cube
harassment
thirteenth
jeep
iter
jasper
brandenburg
fuselage
euros
debts
##lot
neural
fuji
tasted
nutri
##iard
##ahaw
monmouth
hoffman
nervously
undefeated
mok
1782
colise
##elope
notation
tile
medication
endurance
##iland
##thorpe
arent
acknowledge
corb
legitim
norse
uv
##etsu
promotions
doo
##igny
faust
flot
##entions
qualifications
chet
nagar
prostitution
chevro
litt
muss
sensing
##emaker
roch
bremen
reddish
peck
##ethyl
cus
corrected
flushed
sevens
##nor
discharged
##ecd
tudor
rupert
sammy
norris
a3
subscription
lumin
boone
khor
premise
mutations
posting
basal
raises
cancellation
unle
##verse
eup
elijah
liang
solv
overd
##pler
hercules
##ukh
promptly
cind
gesch
pending
leans
graff
prak
sawyer
sober
baritone
liability
naj
molecule
drought
inscribed
##forth
spokesman
##bler
##aille
goalkeepers
mortgage
##ynt
loft
ery
twisting
pinn
sarc
audrey
percept
pits
lough
marilyn
numbering
spears
##ocy
farr
steals
ws
concentrations
fleeing
##bee
assisting
fuz
pn
whiskey
monotypic
##ор
britann
amendments
olga
combust
leinster
demonstrating
prestige
brakes
1774
##odi
alternatively
avon
okinawa
##acha
prese
discour
bambo
mgm
besie
##uil
##opf
deposited
##rils
grap
dissip
printer
dac
defendant
schooling
jenna
statutory
ahl
kuala
abdom
rb
ballroom
##atiya
##anese
discourse
yv
tissues
uber
mys
ringing
eccentric
##este
##uffs
veterinary
osh
schles
devastated
chased
dimitri
##uns
nguyen
hereditary
##adays
idi
uranium
therapeut
##lio
perennial
approximate
collaborations
successes
restart
reviewing
attribution
onset
sikh
shuddered
kenyan
##68
##prints
##olulu
hooked
judging
linebacker
strengthened
sylv
##wicks
ls
attain
eos
fert
burger
preseason
##arp
baz
borne
neville
cannes
cockpit
odys
bourbon
baku
##lywood
intake
scrib
explores
nichol
gibbs
nowadays
sanctioned
clifton
##ieving
engineered
habsburg
begged
daven
ancestral
mathew
dioxide
enzymes
camel
iq
valerie
mixt
##itat
lach
acquaint
##iem
zan
juniors
wield
mx
infrared
rebuilding
tod
ston
##jevo
honolulu
elise
islanders
pengu
pis
niagara
ceramby
proving
overwhelmed
hauled
##57
##othed
##chool
doubted
hib
histoire
karls
patches
reappear
trombone
nip
chevrolet
australians
deform
theo
violated
solemn
tup
equestrian
starrs
extraction
##ilers
stool
heidelberg
notices
processed
turnout
vip
brushing
encompasses
doubts
beeth
knelt
riga
arrange
centennial
##ulent
##ikon
domingo
synth
abundance
##gles
plantations
passages
tao
tyn
rejoined
rhod
kendra
structured
##orp
tidal
nile
theresa
advertisements
punt
##hrer
deutsch
##roads
citadel
##opoul
reside
##ihad
quinc
kemp
flicked
cds
truman
zig
potato
anand
fashioned
lowell
schwe
##ograd
##eye
##icans
northampton
zombies
crem
##leod
monograph
##ungs
vowels
calmly
##enthal
m2
142
cote
##chin
comr
decomp
bobb
shivered
neighbours
vet
abnormal
precursor
ministries
remixes
##cut
jaime
interred
receivers
hurts
stony
observing
harness
##zow
##omat
sanctions
damascus
hunts
penguins
##evich
occupies
deadline
bowler
peggy
medina
prosperity
dich
##etically
lifts
compulsory
kicks
c2
antique
kidnapping
comply
ninety
xiv
alvarez
zhong
brendan
demographic
cola
olig
employs
tiffany
irvine
##abel
incap
gwyn
nichols
kiev
medallists
reinforcements
scanning
promotes
pigs
risen
soaked
jang
macro
forensic
##hir
##affer
tosh
bundle
##arie
ernie
laksh
takeover
belmont
redevelopment
underway
melting
tsun
pedag
##uters
denial
##heon
##gyz
expeditionary
ragged
antiquity
##eshire
aluminium
kish
clans
pouring
precinct
##ulam
tearing
sacks
loire
inevitable
latitude
vengeance
##comb
##eteries
kt
##patrick
slogan
grandparents
##mot
communal
cyril
presumed
airs
telenov
martins
entertaining
kale
townsend
##anza
recorder
graf
solitary
wagons
##asim
dartmouth
bricks
uy
denny
brewing
##owitz
unionist
litter
cemeteries
##ophic
##lop
##uxe
tyne
bew
feeds
##sty
skater
breaths
reggae
rory
##izu
unwilling
dolls
unexpectedly
persuade
organist
safer
rendering
codex
conditioning
##grin
richie
keel
abdomen
joc
intervals
flowed
##rab
ramsey
pivot
morg
##ikov
##onds
wilmington
pry
modules
##ibu
thickness
bland
selections
carly
imprint
beethoven
nana
##aty
pulp
marseille
responding
socially
busch
##ии
schul
deborah
violinist
unlimited
raleigh
zah
fantas
valer
fries
kyrgyz
dill
samurai
nok
drawer
spans
##asso
uncovered
dramatists
kis
hydraulic
offerings
procession
firefight
alcoholic
wess
similarity
representations
pardon
treatise
obligations
privilege
##iku
secretaries
fixture
reconstructed
resorts
tung
policeman
pembr
litigation
travers
historia
institut
admits
forewings
ida
tx
referenced
averaging
yelling
herz
figur
aren
privileges
thorne
suzanne
jasmine
ria
llan
inequality
wies
##bride
absurd
1786
concludes
rewr
ants
##otechnology
phel
commando
comet
oracle
marguer
gom
discusses
reissued
nils
acquisitions
##chief
signaling
enrique
outward
##american
spokesperson
sich
kron
plots
moisture
dispatched
sensitivity
castile
loneos
##asu
pillar
pneumonia
counterparts
grabs
##oreg
enlighten
##wy
heroic
persistent
blows
broadcasters
crawl
bordeaux
amphibious
breton
praising
respiratory
equilibrium
cerambycidae
##otrop
docks
1785
granada
guarded
##anova
##ithm
anz
1860s
meng
postgraduate
##dong
##adio
accidental
vicious
prevalent
homage
urging
doris
misunder
armament
newslet
goalscor
unrelated
##inck
joao
muc
degener
##riz
##aan
glances
151
commandant
gai
##othel
tramp
shing
##wings
explorers
##obil
akadem
recruits
dah
##px
##kenny
mandarin
catalyst
workforce
##aryn
colorful
aide
mait
adverse
##itya
gs
mace
##urian
obscure
wouldn
lamps
hq
banana
pauline
nazar
tb
1763
sheila
deluxe
##ylus
russo
##esville
hats
attachment
posters
erich
luca
lazy
explosives
constraints
##iak
##oum
##hound
indul
statesman
eisenh
##otam
##robe
cen
chronology
##uller
siding
28th
domes
deficit
balk
incoming
testified
identities
bere
immunity
##fff
royce
inclus
##was
baton
deed
##urgical
##wickshire
obsolete
##ighton
casually
accelerated
wii
##isto
pigeon
mosaic
neurosc
##ocl
bly
swollen
##uve
##orse
volunteered
recognizes
resemblance
cumm
mcdon
##ellus
damaging
##enia
flavor
recapt
reminiscent
sina
resurrection
cinder
1660
serena
motioned
zag
##atri
einstein
##etes
forrest
##rika
fourteenth
taliban
identifies
spilled
willy
gps
akh
approve
##iyah
mohan
glorious
##43
zeit
slides
v8
##anthus
gala
wir
yesh
numerical
##ossa
feudal
bunny
wither
##ен
##wear
probe
hiring
##eper
##nas
flyers
prominently
bahamas
##bad
##ulata
hesitation
judoka
torah
recognizing
psyched
blooming
lend
rutgers
chalk
stray
strikeouts
retains
surin
darts
schwarz
bois
paced
ariel
solicitor
##retto
##araja
adorn
squash
accumulated
##imeters
argu
splitting
superst
permits
landforms
crusade
allegiance
kb
##elier
vague
##dem
critique
macr
audit
##tarily
creativity
bounced
##icher
strongh
liaison
drowning
##mant
clearance
lowering
eure
tha
limiting
pumping
crept
hears
##gill
sew
alexandre
unnecessary
##iq
complexes
nett
sins
illuminated
##fm
##inka
barred
archde
##cope
##brough
sticking
aft
cah
##79
arter
faw
rodgers
coliseum
aik
##girl
##uling
nippon
colloqu
trolley
##vs
##orable
twenty20
guadal
flush
tik
gaw
wandered
enclos
caret
mollusk
cocked
presses
chit
##fell
1779
endowment
lois
hilton
welles
subordinate
pulitzer
currents
buch
rowan
icy
konstant
##ellular
guiding
vega
h2
parap
semester
deities
uae
modeled
tipper
rwanda
confessed
stirred
minus
birthplace
workplace
huntington
##friends
rappers
##asta
possesses
muz
recruitment
hord
bok
##acom
paso
musicals
crystals
promoter
excavated
becky
batsman
centro
##km
erection
clam
separating
corresponds
depiction
##eday
airplay
replica
symmetry
##atorium
tajik
betrayal
nikki
concealed
amin
royalty
enslav
accurately
covenant
lars
helpful
getty
whispering
infring
growl
domen
caucasus
kung
entrants
metz
hairy
briggs
canopy
expose
electromagn
brewers
inapprop
andes
fundraising
wrath
unidentified
planetary
restless
stretches
sire
tm
mccartney
punished
cordoba
pts
##59
michele
packet
coke
seventeenth
motorsport
ellipt
utilizing
fielding
unstable
rails
zinc
bala
dop
##thal
orgasm
##acaf
denise
krasn
kathy
nand
morphology
scrambled
attic
bowen
elle
etienne
kj
implementing
archaeologists
knuckles
biom
elaine
jut
sco
somali
courtesy
inadequate
nodes
##alie
##osus
nationale
jakob
dismissal
turret
mating
schwartz
gond
concacaf
##hai
resent
potent
anchored
aces
##inde
luz
oceans
##qua
mald
##chenko
##hyn
baja
granting
creed
garland
lucius
domest
famine
nis
occupational
sucking
renovations
1750
##ancies
turkmen
savoy
marguerite
schiz
wasted
orchard
feas
##gett
killings
wildly
49ers
davenport
winger
gud
amr
##oots
lottery
gour
epidemic
infinity
newscast
slo
patronage
advertisement
soviets
petrol
dissent
pey
##keeping
beaumont
sore
wines
barons
brink
##ouk
##aston
satirical
quincy
schen
teatro
packages
cinematography
hing
hep
exceeded
announce
aggression
unrest
devastating
##ogly
shelley
##itud
monumental
nuns
wavel
plc
musk
travelers
sainte
chatham
##esta
##uko
##aric
ambush
botany
markers
diplomacy
humphrey
protocols
belize
petit
bilateral
##dling
encry
nyc
##ishment
hens
graveyard
wm
coher
racecourse
dough
readings
mysteries
mage
surpassed
plea
hertfordshire
disguise
sulfur
trey
stunning
brace
waived
capitalism
emission
canary
mould
unfold
##umer
##mine
chestnut
staging
allocation
brune
edo
jae
invalid
elbows
lifes
laureate
waltz
dusseld
hicks
pseudo
##endale
pushes
interpretations
chargers
outlined
villains
sparhawk
middleweight
purdue
suns
flaming
hamm
ruther
planting
greco
jian
330
fresco
accounted
joachim
##tc
deflect
grouped
##non
nadia
##adas
##ophil
scher
ghett
fireplace
floated
cyan
sasha
##uela
managerial
dictators
narc
honoured
##week
juvent
constance
tying
##outed
joaquin
rubin
marquess
barney
innovations
##ophora
pim
crunch
relate
##brates
rainfor
##akar
##akan
suscept
dipped
predecessors
lenses
xvi
##aun
balkan
fris
entirety
bamboo
oversight
desmond
mountainous
impat
candles
shipbuilding
thi
undergoing
##jah
propelled
##igne
imped
shimmer
mauritius
downward
militant
##ianus
serbs
maze
thrill
embraced
patrols
bain
lick
porsche
##aghan
pills
marino
boliv
miserable
giul
##mia
##note
preserving
baptiste
closes
1770
cruisers
##endorf
##maid
convenient
##iever
engel
grossing
excavation
bai
##ometry
failures
##mares
encirc
atari
##arine
nude
mutant
displaying
##iferous
unanimously
##odrome
yad
robes
amnesty
##olini
brains
##plan
##integr
concurrently
immense
##lander
humorous
##vd
##ologie
freddie
invasive
##gone
overha
someday
utrecht
instrumentation
tucson
##opia
potatoes
perfection
gertr
winked
relates
donor
infamous
verg
seller
##occup
petals
rund
##arts
##idas
homosexuality
##class
cooled
##wu
namesake
propeller
##estown
probable
##ahon
affordable
##wo
seren
intric
##zzle
##omys
romanesque
receptions
##eger
migrants
korn
diagram
dispens
oll
##ignon
501
fran
propulsion
fulton
whitt
##ianna
256
##vre
omega
##unga
racehorse
##gem
insignia
hydroelectric
##urgy
wilkinson
strauss
##rance
examinations
punjabi
issuing
astros
##agawa
emile
siem
denominations
##erne
jealousy
dumped
cooke
stanton
osborne
earnest
roared
reflections
cadets
pean
wiley
angu
reliability
lowland
eisenhower
rains
arv
##esha
##actor
willem
premature
laundry
soo
joanna
clutched
parc
##ismo
envision
cables
darkened
methodology
shred
sedan
poisoning
sorcer
##anov
predator
timor
strath
radial
boc
##ensk
kramer
disturbing
carolyn
globally
bau
plag
textbook
unlocked
oswald
apprentices
##leys
manners
musee
yaw
eddy
simplified
##41
shrop
cares
zeus
malawi
miscell
skid
vocabulary
louisa
##ulas
toulouse
defens
liege
captained
lola
specials
bick
coronavirus
##whe
##kaido
monopoly
exchanges
etat
sadly
definitive
humbold
buccane
brenda
shropshire
incar
boyle
##agraph
##owe
dresses
iucn
dreamed
dickinson
violently
texture
justified
parano
quote
##ар
oxide
lament
saras
inactive
850
squads
temporal
compartment
watkins
##sta
viable
##vester
candidacy
brab
tusc
unim
friction
##eroy
##wagen
thanksgiving
##vr
outreach
##kirk
welter
##chal
##ayo
subdivided
brightly
1850s
##eous
##amura
sells
husk
legislators
swind
##imet
##garh
regulate
##nier
instituted
prompting
##ugbot
bobs
fading
qbugbot
optimal
##opolis
canadians
seize
pavement
guerrilla
anj
##agin
forge
elk
conferred
legged
racist
40th
##hetics
##ogenesis
replies
##hesis
strands
aero
mcgu
antony
##bright
worms
maltese
sundays
parv
westward
martyrs
##heny
cynthia
overthrow
revue
creators
merrill
smol
jurassic
lyons
dend
gunner
grizz
odi
##fin
gripping
alicia
##istence
chatter
angrily
alejandro
alternating
fearing
ezra
drago
beneficial
youd
##cross
merlin
pounded
##yder
contingent
##inkle
discs
napoleonic
29th
redskins
objected
quotes
##rels
ld
suppression
freaking
bollywood
spies
ideals
tek
lagoon
rok
graft
chandra
metaphor
rink
bernie
pencil
agh
troll
hunted
161
dire
warwickshire
kier
##alyp
brus
##gaard
cyrus
sabot
baptism
##elta
##anj
morales
angie
coastline
crocod
enforce
nope
qualifiers
blaze
stocks
shang
piedmont
enthusiastic
humboldt
stav
beech
recy
finances
verbs
sindh
nonsense
serr
mattered
ying
malone
##ан
flores
alba
fencers
axel
converts
grunted
##orts
josephine
queer
reviewers
ethnicity
packing
ala
mates
hulk
bending
skier
emblem
ryu
bureaucr
leopard
congest
##ollah
slice
caldwell
onward
eminent
beasts
vacated
bd
##mart
##estro
215
blockade
cascade
bilingual
canals
concluding
ily
sly
branding
frogs
facult
simulcast
heinz
asi
laurie
shareholders
crooked
coats
cartridge
derry
archaeologist
##ikawa
concession
cine
rij
cupped
mechanic
ecst
bentley
albu
gret
obliged
filing
feminism
prophecy
rewarded
nicholson
reigning
ducked
ordinance
wee
incur
specialists
tipperary
##listed
wta
servers
##brian
ambrose
heil
maud
pawn
combinations
hamlets
weaving
prolonged
intersections
opener
devised
##bahn
strangely
nause
pune
##ommitt
alternatives
vegetable
ener
periodic
##elas
incarnation
speculated
##imus
ropes
lana
##avar
semiconduct
behaviors
mono
incarcer
wors
winced
##haran
majors
tangled
cess
raul
vicente
##mand
##lund
##hoe
traction
presided
paddy
benton
cocaine
mott
inauguration
bullshit
reconciliation
organism
stranded
tory
directorial
tombs
forested
packs
wires
gers
conceded
descending
peek
anh
annot
bunker
dusseldorf
##icola
zw
hutchinson
flux
transplant
proclamation
retailers
raped
aks
100th
neb
##eus
yaz
wast
backgrounds
arrests
obligation
turtles
humming
cubic
pueblo
siberia
hospitality
##avez
manfred
##hay
##ethe
praying
atr
chie
upwards
induction
desires
peterborough
categorized
loser
zheng
lakers
foreigners
##mberg
persona
##kowski
cigarettes
contempt
nal
guyana
builders
shortage
fifteenth
kib
pach
##inho
humili
chiang
##has
##obacter
pronunciation
ascent
oppose
crushing
melodies
##eers
asa
sami
##kas
pept
##opoulos
bauer
##orio
tarn
myths
wetlands
holstein
launches
yin
mccorm
hussein
hui
kilkenny
offence
utilities
##osium
eliminating
##pal
##emason
saar
dispersed
ode
##53
sark
mantle
siv
nobleman
kuz
convenience
constructing
alban
emotionally
eliot
underwear
dots
impulse
colonists
clicked
freud
##omac
leapt
wharf
wichita
##frame
guan
farrell
jewels
samar
mesh
virgil
teng
reese
##edin
toni
mckay
inviting
maver
naturalist
logging
leiden
##embers
mornings
ravi
##alysis
mccoy
soda
vp
ransom
##fig
nog
hobby
analyses
opus
sarajevo
##plays
rebranded
206
##iflor
economically
retro
leaked
applicable
heirs
rosario
informs
veil
reissue
continually
theodor
##gt
debated
##ilin
bohemia
ballots
##enton
spraw
luftw
swam
neoclass
futsal
weimar
communion
kinet
depressed
##iches
##mos
masked
łodz
contests
sels
monastic
knots
cromwell
crashes
handicap
##idium
sparrow
teles
laden
superb
eligibility
##enden
terrorists
mackay
thou
##uding
shankar
exams
intercepted
##hills
##croft
dissem
schult
exits
biographer
##aval
reno
smashed
quiver
arbitrary
##odynamic
appet
hubbard
halle
militants
interception
stares
henrik
asph
liberia
addict
fertile
disappearing
motel
pickup
desktop
warships
primetime
padres
sidd
hath
hee
##hani
rabb
emanuel
fot
barang
moose
toast
neglig
manifesto
mori
marathi
bingham
##allo
pinch
kear
colling
rockef
slalom
physicists
reacted
revis
tj
embarrassment
##imov
boycott
80s
lining
prayed
felipe
hopeless
parameter
strengthening
troupe
lyrical
palae
sympath
##kat
northam
##amel
contributors
##waters
captivity
minsk
algebraic
##oleum
libertarian
aquarium
resembling
gow
unite
divinity
imaginary
botswana
cheval
devote
olaf
commenting
bret
subgroup
kauf
danube
vacancy
deliberate
obstacles
flung
wren
screwed
ال
apartheid
arid
consuming
maure
biden
clashes
grazing
tails
bett
campaigned
ching
haf
ours
francesca
shun
annals
socks
unification
procure
##schild
pou
cornelius
seniors
piercing
lact
choreographer
unpreced
signatures
artemis
nwa
neurons
##orns
##bath
golfers
##ihu
rumble
alz
##ijk
misery
intensified
cornish
##alypse
##linger
exported
pash
forc
exposing
judgement
stellar
merchandise
notebook
##elman
eaton
tremendous
##ophila
stif
diagnostic
1772
electrons
##leading
zac
remed
tramway
unprecedented
discarded
unav
pomeranian
pressures
jewell
##bet
##odo
lizz
hatt
telem
reprise
##adu
##estation
consultation
mughal
unlock
##ffen
mous
sentinel
countless
voj
thump
sampling
sooth
disciplinary
harr
##unde
pins
syndicate
beers
##omans
unchanged
aba
inlet
seap
##schaft
subgen
giro
productivity
disappointing
enlightenment
edison
ridges
lep
akin
conclusions
coding
drifting
raion
gases
seism
shiv
freelance
expo
neglected
rocked
ridden
newest
peripheral
##zhen
tunisian
hoover
##ichen
madd
thieves
31st
vagu
engined
##andar
##isman
fined
qi
gallagher
concurrent
##etsk
reciproc
deeds
##bras
ethel
crete
##raj
clint
bohemian
sino
cindy
symposium
boer
zay
cet
redempt
lef
tach
##querque
weighing
mutation
functionality
strasbourg
upside
##cccc
darted
giggled
##atio
quentin
intentionally
hose
camille
transitional
departing
##dell
regimental
rockefeller
adject
pais
snatched
torque
phoe
derivatives
##estrians
welch
##ogh
kappa
antagonist
##link
forem
roofs
commemorative
volta
francaise
operatic
langdon
ngo
##ол
assure
##awak
internally
##eau
putnam
##omorphic
reminder
##acons
##rev
arrond
208
sumatra
angular
sonia
glacial
societe
meridian
mclean
importantly
confidential
photographed
wills
evergreen
##dings
exclusion
shik
2023
coconut
tobias
##opposed
waterford
profitable
dizzy
booker
##irs
scholarships
oldham
charlton
cooler
ck
directive
##fulness
employing
sos
ont
choi
hodg
unopposed
brasil
##56
marijuana
awe
sheld
caliber
##udge
centenary
lumpur
##opotam
##ipple
bushes
##ischer
futures
horrified
remaster
borg
integer
vangu
weed
arrondiss
kensington
sweater
nf
playable
viceroy
pedal
andalus
fia
clutching
greenhouse
##icum
envelop
drunken
##orb
relent
reverted
luftwaffe
vigor
databases
morse
transcript
pia
laus
attracting
gallant
wemb
##iewicz
licenses
blackpool
lille
dripping
destructive
chavez
##opo
musc
clutch
provost
##assa
distraction
guerrero
persia
ions
burt
ambient
aleksandr
convex
palermo
gail
jonah
##ilated
staggered
##imm
mlas
bise
skies
##zar
2020s
##ews
zoolog
rasp
eust
slumped
chh
drilling
tid
temperate
nipple
onc
universite
dye
execute
mankind
##icates
abig
dinosaurs
thum
##trak
scha
macarthur
zab
aura
newsletter
academie
hymns
rift
##qui
surplus
stables
antenn
rosie
coated
mard
rhetoric
shia
##amination
interfere
##phalia
blackwell
barrels
##ansky
everton
madhya
croix
340
kow
sled
discrete
setup
nrl
salzburg
##nagar
##uges
ministerial
subset
gid
pops
daytona
glove
grenade
kf
##undi
burgess
giorgio
microbi
ceramics
##pherson
jelly
bourne
motive
prolifer
cache
riz
greeting
oun
surveyor
restriction
postwar
conject
considerations
golfer
lockheed
##gau
flanked
grange
obed
snarled
affirm
shaun
payload
thud
jackets
chromosome
strap
##pace
crank
philips
nissan
waterfront
##sev
crouched
miriam
vance
##ochond
byrd
cartoonist
middleton
yid
mow
##lal
##onies
pulmon
tome
detr
volcanoes
janata
ruiz
openings
substrate
agreeing
grossed
alessandro
##ruz
fior
nure
refined
mav
seph
caledonia
moran
intest
##nius
tuft
transparency
monitors
parr
##erd
##pes
repeating
mourning
callum
extracted
fah
overr
saff
galicia
singaporean
subsidiaries
psycho
hin
wrestle
drummond
inappropriate
containers
wight
amenities
futur
shep
kats
locking
snyder
margins
cellar
eut
kett
carab
welterweight
babylon
foley
anarchist
jaguar
##wid
1760
brasile
##ifera
quran
alvin
broker
copied
soloist
ornament
sickness
##51
laguna
mystic
tink
palatin
##colo
mosques
shet
goodness
energet
mourn
##edes
##losure
207
209
unpleas
warnings
collects
##etown
halluc
glit
api
tf
##quist
absorption
guangzhou
dau
vib
wonders
nike
nocturn
hotsp
deplet
##alin
overly
pto
woll
leic
df
weights
oxfordshire
donnell
cym
##elis
romero
##idine
vos
cfl
pavel
dispatch
metamorph
rooted
eph
biss
usd
ashore
absorb
wl
compelled
stadiums
pamela
logs
lush
righteous
sunni
##function
degradation
tottenham
corm
attested
curtains
##itations
unused
fiddle
##ported
blanche
benin
wizards
intro
turbul
##berto
restoring
segregation
rossi
sars
faber
##aldi
##ovi
hanged
epist
visibility
conan
myspace
tehs
vener
##adar
moreno
unload
motifs
baseman
bites
pathways
sperm
crock
montene
sarcast
##wang
##anski
coaster
obli
php
1773
##mania
gonna
##emer
##quil
distributor
distribute
cracks
exited
undercover
chey
schoon
converting
pretended
bhutan
cobra
cutter
irwin
debbie
bahaʼ
rower
treasures
franchises
1768
##wat
roe
supper
comprise
daring
ranged
275
parole
adler
jacqueline
enig
chooses
maximilian
prow
josie
lash
gypsy
curls
1761
xl
##kha
pries
##upe
##points
pascal
##oug
reelection
vapor
nottinghamshire
shrewsbury
rotor
weighted
palatinate
noises
##hoff
roz
##uning
##qing
gratitude
instagram
##ogens
##evic
explode
focal
wiping
xxx
hurdles
muddy
supportive
ramos
defendants
threaten
fertility
profiles
dolphin
uneven
buffer
valign
##issy
pledged
awaiting
selo
afor
foil
jenks
##ementioned
##grav
shea
leicestershire
loops
fixing
headache
fluor
##omus
##ayama
yankee
mongolian
bunk
libyan
berk
##phones
kris
tyrone
deleted
germain
incub
plank
adopting
smells
chitt
spinal
curated
kk
##orna
##uffed
epithet
cout
vort
torso
ajax
browser
235
tn
trenton
##orial
apocalypse
##wari
##enching
misty
verge
scandinavian
##inate
##retched
mendoza
cinn
syllable
erit
tapping
alterations
deportivo
##unas
nationalists
olympia
chancel
wob
##mani
dinamo
translates
rocking
psychoan
impacted
##illary
nightmares
##jara
congregational
barcl
oilers
demet
afb
t20
porcel
geo
banjo
albuquerque
##herst
snook
poznan
##odied
##bott
vanguard
fungus
andersen
sleeves
brandy
clarity
prescribed
clues
##straße
lindsey
plut
unfortunate
antip
zem
wembley
shone
robbins
airstr
woodlands
appealing
soundtracks
hiber
##pole
##eche
truss
connie
grounded
posthumous
duct
sims
mastered
definite
reservoirs
pesh
coca
##making
forfe
render
customary
##breaking
hirsch
accession
##jima
adrenaline
incorporation
thee
infants
fost
accessories
pumps
##fle
ghetto
suggestions
ashamed
eile
##emouth
combustion
sai
abigail
gradual
##ushu
exter
evaluated
disgr
kira
pepp
tenant
farn
upheld
disciples
commend
evaluate
motorcycles
vandal
geograph
antr
relics
socialists
guth
stade
##fires
junk
recol
buckley
cj
whal
tensed
##acey
crossroads
firstly
merging
203
fallon
bios
screenplays
tp
##icin
##gregor
stiffened
italians
popularly
motions
composing
dividing
brim
scler
centred
multin
healed
degr
lds
curl
immac
indicator
kuk
##obar
##achen
##uven
ull
microphone
cassandra
frowning
##cio
skinner
westphalia
##arthen
prospects
disag
eruption
guinness
##san
enforced
##78
scroll
contradict
firearm
elephants
fireworks
ffffff
##sf
analyzed
cid
310
aper
aq
##opped
playback
aiden
howell
enslaved
##ır
shove
vaz
bantam
etr
hardened
assumes
consulate
modernist
##rama
doi
##dler
overturned
dora
principality
##tender
antisem
##omas
outpost
##cip
elek
##zek
mout
fluct
humble
ej
fatigue
renee
proprietary
scorers
acceleration
##ornis
mouths
cites
litre
hanson
jard
obsessed
loads
##map
crossings
michaels
fda
flared
sot
intu
##onc
portraying
smear
encouragement
tann
ensured
biographies
spends
lyce
diminished
chiefly
blankets
awakening
ponds
surfaced
resonance
noticing
atlantis
##achal
odisha
420
accusing
paran
antibiot
wwf
dicks
##asar
##oides
bombings
microw
##ilon
kalam
psychedelic
amherst
hindus
aching
correlation
fairfax
ausp
£2
pk
##icious
libretto
worries
supr
lange
prelude
bodyguard
##atal
##inement
technician
##renia
samsung
weaker
wrecked
traitor
newcomer
##pha
standardized
committing
171
programmed
deported
hokkaido
##thi
skirm
mounting
##ahs
inward
torre
##oby
museo
kernel
salle
ao
assurance
caretaker
subscribers
pioneered
contributes
wesleyan
inns
ara
holm
fortunately
flotilla
trembled
substituted
mla
bask
mayoral
engraved
wilde
meta
ponce
puck
bwf
##jav
##about
rodrigo
##encl
clung
yeh
##anity
proposes
##ipa
1767
jap
f1
meteorological
shaky
##ushima
##ohama
subcommitt
enjoys
evidently
dwellings
##pet
asher
usaf
spani
ambition
fishermen
cows
doping
dorian
manipulation
microp
relieve
headmaster
obe
linguist
expresses
decreasing
contemporaries
demonstrates
rainy
offset
##icht
##adena
playhouse
folds
##iye
blooms
kou
tallinn
ea
reeves
carla
aforementioned
##eres
otago
glee
grandpa
dominate
##dog
forged
inherent
yon
sgt
inactivated
landings
scarborough
viruses
likelihood
xiao
370
circled
probation
brach
mek
famed
rockies
nava
trousers
hisp
##fan
##ulk
magician
reorganization
alonso
##hun
stout
contractors
ceph
glut
spotlight
prasad
lore
fiery
rutherford
aeg
parma
netball
diner
oddly
##nard
kahn
tern
365
##trod
##ibles
earnings
aristotle
unpubl
exhaustion
portrays
veto
##yat
meaningful
##bud
artery
goldberg
212
shand
##98
fluores
##buch
cannons
##mind
##lı
pledge
gaps
switches
ssr
bravo
halo
yach
dred
##ythe
##iata
nex
odor
lsu
wex
hohen
humour
justify
chairperson
oste
polly
glaciers
amalgamated
vhs
rhein
amass
moons
assistants
subdivisions
##enga
builds
sergey
antioch
morality
farmland
buccaneers
jammu
gaston
resolutions
haley
cinemas
tossing
yokohama
assyrian
encourages
manny
calcio
##beth
flir
prevents
heavenly
##bill
##ppo
genuin
gunther
colonization
emperors
##gm
dib
##teacher
hooker
uniqu
mein
proves
a2
flattened
tuition
resurrect
kast
metropolis
##closed
squirrel
nau
confuc
embro
africans
fein
sensory
appalachian
puzzled
bism
cinematographer
denying
stratford
validity
bayern
rudolph
itf
mcfar
culminated
rosemary
##jal
blitz
tracing
geelong
eton
lingering
##oppy
alloy
##gorod
dae
liar
##icians
scratched
kp
theologians
##76
##apuram
##awar
290
godfrey
doncaster
##just
unint
stokes
wherein
detainees
vanish
##eras
##author
neighbourhoods
worcestershire
stockton
dirk
draped
##iently
threatens
inventions
choreography
fits
gmbh
unpleasant
routing
calculations
daly
specialised
grinding
outlook
dorn
boz
##rug
defences
##estones
rd1
conclude
##islava
380
spook
##iceps
yields
relocation
##annel
foremost
smoothly
nowrap
thanked
haitian
aziz
affinity
biologist
fresno
metabolism
qin
python
quay
originates
##afta
gaa
##idon
sticky
##ovia
drone
##uis
ua
mf
unseen
steamer
coma
dungeon
seahaw
hailed
enqu
connell
characterised
presley
disturbance
abyss
malac
espana
longh
caress
consolidation
##upa
##erve
aquatics
atkinson
scenarios
pertain
vilnius
zee
rites
##ersen
monkeys
therapeutic
suffers
bf
##ifiable
motorsports
##abouts
##acea
resembled
nv
ames
##chio
zoom
##acial
ew
dissatisf
##ismatic
textil
##undo
andrei
unpublished
stroking
dynast
hary
paradig
vita
1766
digits
spectral
##ilations
reminds
##ophyllum
handles
supermarket
stamped
anatom
hench
katy
streamed
undisclosed
clone
htm
asphalt
conglomer
tuned
offences
arguably
##proof
billie
smirk
strawberry
chast
odyssey
meanings
quaker
eurasian
skinny
peacock
jai
compton
shale
abused
whales
##tan
redund
warr
detailing
harmonica
inverte
taun
##bull
illegit
disastr
ffcccc
plata
orion
arrogant
pets
wai
oceanic
fairfield
trader
cracking
snout
lyricist
destined
dand
salad
rik
wt
##heus
##amiliar
rotary
palazzo
imports
samson
##54
poole
jaws
kindness
calculation
##wave
##owell
##ulator
taekw
pell
psychologists
fren
olsen
erd
jurisdictions
dominique
yukon
arun
metaphys
fibers
levine
maturity
psychiatry
bisexual
shouts
ness
charting
shelters
cautiously
lasts
forecast
intending
giac
cheltenham
sincer
vogue
condemn
matthias
broom
jeremiah
congregations
##zcz
hudders
amidst
lizzie
lauder
rudy
skye
##ovian
leuk
academies
analytical
waiter
huddersfield
dort
##moon
boiling
shelves
##mental
goldman
##abas
fascinated
vows
commiss
##emont
silhou
bartender
benev
prediction
sinister
vaguely
##aina
psychiatrist
222
confiscated
ached
jurist
uncontr
goldsmith
battleship
kickbox
##asper
##aten
##ucer
apples
##hak
cheaper
topology
##ieder
##ounding
crip
consume
shootout
hammers
##96
immigrated
lacey
##58
##psons
confronts
enduring
pum
pacing
tornadoes
unbel
##yeong
turnp
regan
fanny
owls
nostrils
weightlifting
spice
delph
##aroo
440
##estag
unter
courier
aztec
##won
##inform
480
mma
mirza
##onis
secre
stry
brunei
wary
diaries
whor
galerie
##four
megal
krai
armist
sprinter
consulted
##step
ulrich
gina
delighted
shag
worrying
advertised
jc
harrow
paterson
mortimer
##onium
trif
translate
kamen
cecilia
rothschild
algae
arbitration
90s
ingen
gregg
##500
##ikan
##ου
##arum
beaux
burd
emilio
##dn
capsule
gangs
joker
ratified
sarat
electromagnetic
oster
pokemon
neoclassical
dictatorship
##jk
viad
italics
corey
##anging
unfamiliar
##tenstein
syed
bij
phosphate
daphne
honourable
sichuan
tee
certainty
lepidoptera
##pad
schon
asymmet
##vili
seldom
lattice
kurd
longing
##ussen
hampson
uneasy
invol
zhe
ankles
warlord
gaunt
slamming
ike
relinqu
##bei
celestial
backyard
bourge
redesigned
vind
##ovis
##iris
norms
plast
sniper
barlow
evenings
propose
spartan
piston
lublin
traps
##acking
extingu
chuckle
utilize
butch
pictured
sieg
bundestag
cortex
patton
katrina
##inians
presiding
##moor
##rift
titus
##lech
##fur
reco
wehr
tash
occident
bait
rother
##lit
unmarried
nests
interceptions
graffiti
kapoor
bravery
crusaders
##ograf
prag
##edict
determines
bourn
libre
desperation
annoying
saloon
flashlight
appell
intercontinental
porcelain
alderman
ideological
##exts
scowled
##ophe
patented
farmhouse
vishnu
compressed
##human
slater
bowman
aal
salvatore
foli
versailles
##bay
chieft
genuinely
gao
##emate
remembr
##iena
elongated
shipwrec
fife
favoured
ili
seng
##kien
marr
cpu
luton
##endo
castillo
bienn
amazed
threads
covert
dunedin
##obiles
microc
menn
moul
##uen
saur
peach
collided
differing
mandated
squeezing
rhodesia
##ptonshire
spru
natur
##iscus
grimaced
repos
attendant
##ideo
confederacy
cumbria
castell
##klenburg
##liers
##urry
neph
stove
alman
otis
mckenzie
ciud
denomination
kess
caravan
bounty
cookies
minh
lull
diocesan
mocking
mixtape
stormed
enlist
norte
vernacular
uly
##ombe
##zin
assemblies
horton
fey
warmer
montenegrin
guilla
anytime
adele
kaf
##orsk
monstr
naive
donkey
schn
mira
##worm
rafe
##zb
##lein
remot
darlington
kult
intellectuals
##erton
bethany
acquitted
##opathy
cade
assaulted
npr
imposing
##igham
compelling
phara
gertrude
hott
##once
turbines
intox
northamptonshire
calv
paj
eury
melodic
addison
##umbles
ottomans
consonants
##ibar
##endi
denounced
##yah
generators
murals
##ieur
hild
severed
splash
undertake
1400
##zys
##gc
searches
sart
outdo
wedge
eduard
multinational
culminating
fusc
wolverhampton
##alaya
jok
koppen
como
nuremberg
modular
375
desirable
cog
nomencl
cabinets
consonant
midd
##ijn
##vier
flashes
##owicz
##umba
mcmahon
supplier
sloan
apps
simpler
1759
hoc
##mantle
hards
##ος
rufus
neolithic
##anum
hastily
isil
couns
grapes
mersey
ornamental
trance
##store
##uger
##ento
statutes
##staff
relies
intermitt
bela
##his
##zie
wallet
bres
landfall
parkinson
ankara
excurs
##01
playboy
recipe
gabrielle
straits
inert
specializes
christoph
elevations
expulsion
vt
nymph
cafeter
braced
##gev
taekwondo
cans
##ignant
brev
miscellaneous
foreman
stronghold
guill
novi
indirectly
##inta
rabbis
wilkes
mei
offended
runoff
principally
ij
frantic
stadt
sapph
tango
troph
wally
jia
mainz
snapping
mitochond
seville
##aer
##illac
kali
hinder
##atted
sanitation
renn
complain
##reys
comparisons
pyrene
reassigned
rau
criticisms
odessa
##mis
chrysler
isis
accordion
cheating
reprint
omitted
disqualified
entrepreneurs
vij
redis
gabon
dismantled
##iterated
stricken
disintegr
contexts
natasha
1800s
dioceses
interrogation
poe
irritated
enthusiast
immin
sultanate
hussain
##hammer
cray
sarawak
##avag
avalanche
##chn
rematch
satire
archiv
bong
narrated
amel
70s
aldr
compilations
kamal
slade
fundament
dok
glider
ascension
verac
##text
vitamin
##imps
paige
autobiographical
##97
sprang
##orthy
##elda
##emar
exhaled
settler
mustafa
hinduism
deposition
woodward
brighter
hates
discretion
prent
##essive
yiddish
objections
recycling
dobr
##ка
foll
northward
301
forthcoming
pb
priesthood
204
vere
##ophones
scattering
eastward
emancip
interconn
colchester
delivers
211
wikitable
textiles
##actus
accountant
leb
modelling
1771
gild
dangers
##nov
##oughs
canonical
polynomial
fins
estuary
sermon
secondly
sala
ortiz
yorker
satisfying
conspic
bali
##agna
termination
213
marta
cheyenne
valves
stevie
seahawks
subl
1300
theorists
analysts
guangdong
1769
harmful
##opsy
narayan
franciscan
aes
criterion
reneg
annexation
##pus
preface
matilda
macon
friedman
electors
hitter
suitcase
olimp
toad
##boa
coil
##hors
emilia
pediatric
explosions
wab
indec
##quisite
encoding
alfredo
schleswig
bernstein
##imoto
biomed
taur
radioactive
mirac
##asses
gunfire
##burst
##ouard
##adores
avid
railing
suicides
illegally
visually
deception
##athe
##eleine
##loid
disguised
subun
##leaf
empirical
sorted
archery
##hav
##zone
sears
mccall
longitud
cora
houghton
##stor
spurs
reddy
simultaneous
disastrous
marches
variously
practitioner
elastic
pasadena
kild
haze
gma
wired
refurb
rainforest
reuben
ung
malaya
exaggerated
nie
mandolin
restructuring
##alsa
murd
##kir
responds
lexi
katz
inclusive
cinematic
##ologia
ljubl
##jit
##oty
1910s
counseling
archdeacon
axle
gloom
austr
enclosure
sliced
melanch
caud
orator
recalls
nasal
fulfilled
rashid
##obic
sensual
##kyr
countdown
##street
sheldon
digitally
##ivism
##ifical
purchases
mecklenburg
yves
goats
striped
tis
brist
panicked
selsoviet
neh
provence
grayson
gladi
spok
canadiens
ciudad
univ
##cd
##annie
detectives
pumped
buckinghamshire
derrick
panting
saxophonist
tonga
vines
slack
headline
##unn
coo
rancho
certificates
drains
##game
jericho
reggie
harps
groom
##heres
declan
##52
sill
jaff
polk
stalked
mausoleum
clav
malls
boll
##ensburg
scam
joze
commenc
##erun
lively
hiroshima
##yam
hara
liberties
##odynamics
burgundy
shov
brok
inhaled
##ishly
insists
rearr
ordination
ith
##giene
allie
linden
grasped
terminals
##ın
abst
ferries
##cox
simpsons
terre
ruthless
telecom
turnpike
oasis
verona
miracles
camou
ict
##opal
discom
frau
pathology
##rates
quintet
viper
subcommittee
lh
bk
##odeon
##ел
hillary
##angan
ptole
continents
furnace
xian
recollect
reminding
lombard
muir
burgh
montev
nostalg
forearm
recognise
hemp
##utant
##ije
barrister
##chett
circulated
pontifical
occult
madeline
ritch
bayer
faz
torment
fremantle
disconn
morrow
clinics
##atre
##ryl
khz
carriages
walters
##engo
##byn
mclaren
##ostr
husbands
redistr
fiat
moff
##screen
erica
whig
prosecutors
##ivorous
cents
lao
vendors
reinstated
forster
##arty
deco
moderately
gland
unpop
volkswagen
carc
pep
illegitimate
pines
##ophysics
framing
pistols
hygiene
initiation
hyun
##ieces
flexibility
##ог
sped
exceptionally
overlap
masterpiece
masonry
parana
chaud
cite
hides
educate
behave
##nets
amtrak
ghaz
dunes
organizers
dp
inad
cerebral
hearted
dement
deposed
compose
seminar
cookie
##banks
flock
pearce
##owska
viaduct
macqu
demos
1840s
abdel
ramsay
conceal
interdisciplinary
tull
##media
##muller
sleepy
fernand
croy
rss
obsession
##assium
prospective
url
tuning
salvage
embarrassing
vuelta
tiber
luckily
heavens
dia
hv
archers
reckless
milano
bestowed
##igl
outfielder
labelled
processors
homicide
entrances
smirked
commitments
endured
wheeled
staple
##ogeneous
leafs
spd
potomac
1765
reasonably
secession
spartans
grill
gris
hindwings
cyclones
911
pilgrims
quasi
sput
##etan
scrutiny
yellowish
214
redemption
commencement
bouncing
tehsil
attackers
willard
donors
kabul
##ensky
madeleine
applicants
##rc
quer
suffrag
gugg
anthropologist
phoebe
stationary
1762
buyers
##ayers
fascinating
##inely
##atius
guarding
fiercely
espan
imperson
organizer
leroy
lure
##orc
muffled
vargas
lashes
##rill
freemason
##vez
sherlock
quartz
weary
spreads
otter
woven
valenc
julien
crimean
statistic
goddamn
1715
besieged
bourgeois
wrinkled
thoughtful
bidding
cbn
revolver
thrilled
lugg
hewitt
revive
##inz
entrusted
##atel
##olit
businessmen
spherical
novgorod
insec
junct
dynasties
appra
campaigning
motives
wooded
camoufl
bartholome
spouse
manly
inflicted
frightening
rests
pleading
##gp
stylized
##abs
sherwood
locke
requesting
##a1
pomerania
##adur
peab
##itsa
landowner
sahara
bows
##oglu
anaheim
beads
jod
louie
gradient
posture
invaders
costly
dice
iaaf
whitish
neatly
milestone
exodus
extrac
integrate
spared
boiled
damian
hopeful
danielle
vickers
cavity
silesian
walled
##forward
blacksmith
reliance
whirl
crawling
thessalon
unfor
seeming
konstantin
333
abort
automation
rodeo
##coat
taut
retal
dracula
plunder
tentative
sama
undergone
hazardous
galile
whore
oro
##aughty
mca
assassins
arrondissement
shoving
219
##uble
##assi
handy
swap
clover
##mined
hapoel
conch
##planes
geologist
1764
preferences
doses
217
hooks
ubi
exasper
herbs
impose
rugged
##uper
pierced
1640
##ergic
puppy
##vist
manned
impe
disappears
epidem
untr
selecting
##rand
##bron
ruben
exceeding
partisans
attach
kazan
##ecost
handwr
executions
oven
##bao
protectorate
cougars
wiel
filters
##82
splin
proton
disciple
reservations
guts
unemployed
ragh
dino
rte
##ogg
grains
tamar
pint
medicinal
superliga
heap
adobe
aki
##enbach
guillaume
marius
##guards
hovering
potassium
##coni
monit
##dre
transverse
tandem
domenico
##oros
momentarily
mandal
##erte
##thalm
mitsub
quiz
jesuits
mani
dixie
spokane
arising
landlord
shocking
demetri
hostilities
federico
penned
##icable
terrifying
skipped
mystical
imminent
bahia
tablets
liking
buyer
banquet
##kick
tbil
resh
collaborator
rhythms
##riac
overlooked
accountability
snowboard
ljubljana
imagining
hl
newborn
bianca
retreating
coincidence
explanations
enn
syntax
spectros
##ivities
wanna
impart
paragraph
fumble
peabody
lego
confusing
thro
voluntarily
fatalities
johans
ait
breth
icons
supplying
surm
skim
counselor
shal
marries
##corn
declares
duffy
##houn
doe
knoxville
##yrus
##otis
jett
instability
corridors
##idable
instincts
sponge
geologic
needles
browning
325
shouldnt
transforming
bridget
410
##uco
crimea
reins
216
mcne
intersects
perfume
prejudice
faculties
##rau
wholesale
usb
blinking
gutier
slightest
ect
##endicular
taft
collin
booked
garfield
defects
yuc
##hua
prist
auguste
burrow
1754
conjug
##atia
conditional
reintrod
retaliation
deficiency
##lene
greenville
vulnerability
keynes
cathy
tbilisi
bethle
advisors
##vara
monty
stealth
sparkling
collingwood
hesitate
##yx
upgrades
textbooks
niche
steph
quota
gerhard
participates
doctr
vida
domination
stefano
scotch
kelley
##uno
patty
##ograms
##bid
atroc
boarded
wain
fru
disused
yielded
mitsubishi
##eliness
unbeat
perpendicular
livery
wry
cern
indict
epa
lawsuits
comforting
bakery
shaman
notor
zer
##buck
##alde
garg
plato
##iero
haryana
thankfully
injust
spontaneous
correction
genev
nickelodeon
ecoreg
researched
rhineland
revital
221
##orrh
admiration
apologized
byzant
##iente
tasmanian
yunnan
##angana
cooperate
skyscraper
gaius
##erved
vase
shoreline
assumptions
contamination
migrant
sewer
fs
##oja
generalized
melville
pentecost
respects
bubbles
moj
lama
painfully
hilar
1740
izzy
##leader
guern
successors
storylines
##ouss
echoes
##wei
##may
hearings
honesty
mahm
monitored
##intyre
transporting
padma
outdoors
lockdown
jumper
seizure
##omir
##nity
djs
influx
embark
adaptive
coincided
prok
parental
##yk
##aq
sabah
caracas
bethlehem
disob
##ierz
claudio
breathless
m3
ocl
flickered
finisher
boo
remembrance
ning
roaring
marianne
ballistic
rubble
kik
conner
equatorial
##irth
slated
temptation
vaudeville
transylvania
mesopotam
faso
penelope
poisoned
wp
tempted
langley
470
brib
yates
dresser
sparta
sloane
mandy
blanco
clarkson
brant
rendez
snooker
forgiveness
nb
##tur
ork
underside
glor
disreg
cebu
trams
installment
##rafted
breakup
bargain
##andum
stephenson
ante
linen
##letes
qur
intercol
sabine
wakes
##84
chronological
unix
armistice
priorities
comte
colliery
constitutes
qaeda
303
darcy
monterey
akbar
baths
1755
mabel
pornography
mariana
cylindrical
celia
##occupied
cafeteria
glaring
##inidae
##ellschaft
##atism
##arak
stripe
stacked
registers
rana
manipulate
vaughn
##nant
belts
##luded
minas
walnut
isbn
cil
##rase
vibrant
erad
hypot
karim
guiller
minors
initiate
timet
mids
paramil
blush
prevalence
##iento
srin
cyst
##63
taxp
bathing
kite
negr
##yas
larsen
unin
orphanage
fec
##isław
chas
christi
clergyman
gupta
interventions
bien
shaken
1650
landowners
bridg
balkans
abol
tsunami
##izo
transcend
ugandan
microwave
joking
goodwin
dispers
impaired
224
abl
convergence
slang
fra
electrified
prologue
##fair
khark
1753
mcbride
##copes
cautious
envisioned
shepp
turmo
salute
envoy
tastes
servic
histori
decreases
baked
riff
##vale
##ptive
nouns
##ionage
mutiny
brethren
haifa
evid
mateo
buster
##isches
suprem
floral
phyt
xanth
sej
##evo
barnett
bernhard
chag
bounce
battling
colby
stump
novak
##bonne
warbler
tyson
mercen
##govern
sharif
##pill
gruff
##ustomed
oyster
iro
lucian
1707
protagonists
adhes
cabr
bikes
bamb
hume
diversion
dolly
invading
attacker
##ochemical
harrington
##chev
##oxide
burkina
##acious
repay
totals
trait
exercised
mythological
rv
bordering
deprived
olympiad
curv
hormone
marketplace
artworks
undoub
disagreement
##iones
paste
foyer
##eanor
fw
graphs
##lasses
orchestras
slash
succumb
unbeliev
santana
bartlett
ecosystems
furrow
diffusion
##olm
stard
invitational
chrome
protestants
aubrey
sine
expectation
sandw
brandt
susceptible
##bies
depended
lending
joints
yeoman
scheduling
seminars
preaching
bei
trac
axi
agust
dehydr
intently
##neur
thumbs
##itives
loyola
lviv
archaic
baylor
1830s
recipes
218
booklet
1745
##ulet
peyton
boise
sails
##aira
##geme
hitchcock
plunged
bombed
sinn
caul
invites
haar
concentrating
##emma
campo
musica
sellers
shareholder
paddle
kneeling
buffy
economies
fredrik
alliances
javelin
semiconductor
incumbents
##ridae
undoubted
spanned
truce
urine
##henburg
transports
betting
##oxy
collaborators
gutierrez
treacher
currie
##nock
pharaoh
scenery
creepy
genealogy
smug
rowland
cruelty
nub
undead
grub
rejects
maris
romani
mounts
##helle
raided
pieter
conducts
archival
##atters
bernardo
greyhound
##ichael
drying
##writer
helene
##hner
exploit
hutton
saus
nomenclature
dung
remixed
fores
##bridg
dov
##rol
##onite
swell
levin
traumatic
##alls
akron
ventilation
swirling
literal
halft
sacrifices
fueled
fuzzy
##hui
roost
energetic
##holding
ignition
ensign
analyze
presentations
lausanne
guido
lillian
admissions
madden
720
attribute
##geons
remembers
towed
automobiles
landslide
acetyl
tarr
##orte
softened
fortunes
malaria
nij
spines
silas
gazing
##enco
foam
glover
isaiah
barony
##iburg
liturgical
##rr
##vous
freddy
unconstit
contention
ferre
##ет
effic
elton
fours
rupt
trophies
marjor
##arming
fae
imagin
aesthetics
##hera
guggenheim
##asmus
##ainen
##omics
35th
deng
emphasize
##oks
clit
careless
33rd
nouve
gamble
carving
overhaul
reclaim
invade
magnum
yur
##ridges
licking
parallels
mith
brest
heroine
##annis
competent
gangster
anonym
juventus
##hei
implicit
spawned
sver
reputed
manic
lori
superstar
favourable
deserves
diverted
turmoil
defer
32nd
guthrie
bernardino
terribly
##atos
dependence
##azzi
symphonic
torpedoes
frantically
##ovascular
header
cim
benedictine
cradle
hn
ih
mentioning
espionage
pyrenees
##ibor
purported
proceeding
meek
distributions
fulham
lour
chub
unpopular
cambridg
protects
lipp
##atown
trunc
##heet
##itates
gdansk
zum
introductions
undrafted
disagreed
jihad
##ovna
mech
scho
treats
yahoo
##zs
carpath
£3
##arsely
eyelids
tanker
densely
welt
derive
agg
curiously
cambridgeshire
parry
##uche
luce
##viation
tapest
soothing
##izzard
fx
richter
sall
admitting
##weeney
simplicity
tetra
jel
##orting
notified
pembroke
wentworth
##lau
resil
jeop
franks
##ilateral
shrubs
kham
##62
eucalypt
nautical
countered
##uvan
nairobi
richest
proclaim
detector
modernization
hangar
##arg
severity
227
thessaloniki
ons
brackets
journeys
bartholomew
bankers
bolivian
koll
##jans
lobbying
##dl
glowed
jou
mest
##entes
##rically
humidity
prakash
talmud
tread
industrialist
problematic
takah
osp
advise
blazing
inquir
pena
foothills
antiquities
232
gaud
yamag
goin
petra
woj
##igon
rosenberg
m1
bison
##akin
##anao
adolph
bandits
longitude
##amus
curly
##breaker
chloride
ska
landes
parrot
galloway
ceded
phylogenetic
##apeake
cabaret
shil
zal
wingers
tint
deepest
negatively
viva
vegetarian
mute
nanjing
biał
##cards
barked
dickens
rees
flare
discomfort
##inged
webpage
cummings
paperwork
alchem
bonif
aspen
255
fitt
wł
##amble
novella
undertaking
professorship
1756
##hwa
##journ
fenn
luggage
##chu
brightness
theirs
palaces
wwii
mapped
alloc
harald
kyrgyzstan
commemoration
##83
avalon
captures
vard
erg
##cell
223
traject
incidence
plagued
costello
vans
autism
coop
juno
iphone
##lectic
convened
mercenaries
extermin
fridge
amounted
tents
medicines
boroughs
nood
shifter
canoeists
ritchie
baff
weakly
##obo
##iras
honeymoon
purity
ett
bonap
pathetic
aggrav
negotiating
tweed
biotechnology
dessert
##iating
rowe
laced
chesapeake
galaxies
maccabi
grady
conversely
jozef
nant
##igraphy
##ilan
impending
refuel
bengals
##orical
drummers
1757
casp
improper
inspire
apostles
patel
##uchs
hillside
haem
##rals
immaculate
chords
shutting
bethel
revolves
hodges
breeders
rehearsal
lech
##stedt
ornate
hari
460
reim
520
authorised
warns
##vir
##broken
barge
##coal
sylvester
instinctively
34th
mysore
boca
tect
regress
##balls
ui
wasp
##champ
eer
dian
announcers
bullying
exploited
aman
##ailable
montevideo
foundry
inverse
##hene
taxonomic
cuck
##ев
suspicions
1a
ripping
grumbled
maureen
notch
##izan
brasileiro
##afe
##abria
astronomers
fad
calculus
fools
attendees
##schule
klu
piled
##udo
optimization
##lifters
##hift
congen
massacres
##hent
dais
inaccur
remarried
violating
unhe
holloway
##eyes
pensions
torr
mergers
##estra
prescott
downhill
endowed
lai
calf
kany
micah
montp
peninsular
flourished
geschichte
##amation
##elig
remarkably
prosperous
jig
relying
credential
##ocytes
faa
poked
hiss
confirming
commemorated
injuring
vanity
memorandum
denote
##woods
obstacle
eber
refurbished
##eering
##cephalus
muzzle
peering
monoc
sunglasses
echoing
graphical
##ophobic
quo
beckett
exert
panchayat
231
##acus
fishes
comrades
xuan
##gesch
sardinia
coefficient
##ifix
intervene
svet
gardiner
eileen
fos
zepp
possessing
cai
noticeable
barnard
anchorage
realms
##throp
abram
##reich
dusk
nect
jad
cheryl
dary
philanthropy
hellenic
##kre
recession
interpol
disagree
biennial
42nd
dammit
sinai
hostility
aperture
hb
slips
invarian
crass
eck
guessing
murdoch
##rial
welcoming
tacoma
1689
periodically
gracie
narratives
fabian
##horses
680
brody
mccull
schre
biomedical
##acements
arithm
indicators
vibration
gemma
widening
intricate
lute
trud
hayward
ske
watford
haupt
oricon
##ocław
interpreter
##hik
khmer
dewey
##uaries
augmented
persisted
slipper
bem
annih
rework
vineyard
##iculture
prototypes
acacia
cerro
##ramatta
magna
ecumen
situ
occupants
##log
babyl
mineswe
adjunct
fatty
##cars
spire
webber
clasped
uninh
sniffed
##afar
arturo
##velle
optics
glucose
darm
frontal
##olyt
chewing
quan
kinda
contender
inspiring
entertainer
kiy
##marine
atkins
##rim
##esthes
steiner
305
waits
cavan
huskies
convinces
##irchen
montr
moines
corpses
vectors
##tus
sheltered
polyg
rushes
##pis
blad
fuss
##icki
bolivar
elves
memo
brigham
frigates
grouping
disclosure
##apple
connector
rye
jaen
courtr
1710
jamal
denoted
##eles
armenians
e3
540
noc
perpetual
tajikistan
poppy
grims
policing
regeneration
##uw
disgusted
twitched
buoy
shogun
khar
##0e0e
dmitry
strains
##chat
vertices
faults
projecting
edible
propped
bryce
##verness
dalmat
##ellidae
caric
splits
physiological
##lid
cocktail
pleist
##opod
citrus
sow
throbbing
##litz
impressions
croft
##74
##shield
guillermo
unwanted
garment
preserves
churchyard
hostages
##otiation
inspir
improvised
undoubtedly
beautifully
remastered
neurological
defenc
sediments
angered
separates
##hov
monsoon
idle
runaway
schizoph
emigration
##angelo
cullen
storytelling
hartley
fills
##73
lookout
acquaintance
##mentation
abuses
edouard
baird
fabulous
gravitational
ursula
travellers
gentry
culinary
pussy
##legiate
##orsky
##arist
resett
cleans
randomly
##weig
wardrobe
recons
zoology
kush
unlaw
telangana
entrepreneurship
cottages
hangs
kathryn
pans
harmonic
predictions
leaped
politely
##lords
ventura
prog
##akrish
evenly
surfing
##aner
smuggling
dickson
trivial
spiel
baum
##rows
efficiently
skeptical
lynx
boon
rendition
curran
##cup
complaining
##otsky
##kaya
irritation
gee
intercollegiate
##alone
offenders
yusuf
linger
245
pounder
dyer
fontaine
arithmetic
##lang
##ozoic
##reet
perch
positioning
advocating
raging
garry
bled
halftime
byu
schum
lukas
wolff
##tas
bratislava
inflammatory
witchcraft
##amesh
##anooga
lenny
feminists
##81
sufi
##eworthy
annoyance
cip
scaled
rooft
armand
crucifix
creep
gatherings
trusts
##idos
carleton
attracts
nero
facilitated
kurdistan
slit
piles
tyre
raoul
arct
##92
minimize
token
wanda
##trans
hush
unreal
battered
##henko
mounds
perme
capitalist
thorpe
coordinating
lennox
bharatiya
unconstitutional
##gham
masonic
##macht
hamid
calculate
eel
##4th
cartel
barrage
impuls
remnant
##quito
squinted
cbe
boilers
penang
giggle
##ophobia
slug
refinery
fitzroy
##ags
##ugawa
decca
moe
stacy
unac
##fork
##izia
mythical
acknowledg
fracture
coating
##useum
insights
phelps
##oplane
jaguars
stacey
##ingale
##anko
esport
marlins
feroc
turkic
##joy
##71
symmetric
##ал
##iyama
##good
scarce
apprehens
chattanooga
tog
housew
mueller
elmer
vertex
b0e0e
##owice
b0e0e6
640
pentagon
contaminated
sheath
olds
tito
adjustment
vascular
gestures
perched
greed
baroness
xiang
hardcover
osman
nicky
##bbing
siren
putin
vowed
catering
famously
karab
fum
mina
##hab
convictions
gasping
cylinders
scalp
snatch
ghar
##allah
sudanese
schuster
owning
bogota
yere
maroon
impatient
##lest
ronan
liberated
crot
##meister
symbolism
thuring
morley
navarre
maddie
##ин
spectr
napier
leib
hereford
linguists
nino
bothering
warmed
pamphlet
whirled
topography
shortlisted
authorization
psal
##oscope
carcin
salesman
hubner
clade
formidable
archbishops
alta
bafta
##pop
##anagan
clums
737
##oland
genetically
correctional
vaccines
dard
anastasia
consistency
238
francais
lazar
##hous
disliked
freiburg
discern
admirals
instituto
alzheimer
marjorie
##zia
intends
restrain
oxidation
texans
connectivity
cephal
repuls
noteworthy
examiner
mimic
airbus
umpire
##igy
##bly
keyboardist
##igal
rewards
265
khalid
##tu
whitman
sociologist
##ieux
bla
nepalese
##rail
sundance
kirch
1648
euch
pw
backdrop
kidnap
tere
cosmos
musket
390
fij
##illus
overseeing
tugging
##hester
pitches
zhen
kidd
##opic
bangor
unbeaten
siberian
wrought
forks
clemson
ndp
siam
helens
ln
krie
tripoli
thatcher
kott
musa
thwart
##igate
subter
jy
robotic
bahadur
barric
flirt
pba
eclips
430
differentiation
sabre
jimenez
diagonal
berber
surveying
tigr
sanford
quarantine
mecca
##adam
internationale
forgetting
seaside
phyllis
sewage
228
eras
flicker
kitten
amiga
##etric
whereabouts
tg
pleistocene
disruption
bari
lm
##ouin
##oplasm
intercity
gue
##orca
neuroscience
lehigh
skateboard
earls
fuels
gok
##aila
marne
commissioning
suriname
acronym
aleppo
stallion
insurgents
munro
cheerful
##urable
##obas
##ondheim
judd
policemen
robotics
fibr
co2
##hny
fath
biochemistry
spruce
slayer
starving
isk
luth
semitic
ophthalm
lame
sinatra
4000
bounds
##build
eyew
luzon
ragn
coherent
herod
reinforce
investing
##94
mora
ensemb
coloss
charcoal
##fighter
mediated
silesia
parramatta
wrig
occupations
hana
dynamite
##fors
roadway
enrich
rhone
goodwill
mellon
melvin
longitudinal
##ayashi
sicilian
highlighting
fla
##icos
cambodian
banning
authent
featherweight
arenas
bek
shrines
norma
pandora
1727
skirts
##ruff
vaccination
##uates
##ionale
disrupted
fuku
##czy
##heit
##atoire
misconduct
hawthorn
niet
sash
neutron
hardest
quantitative
stride
vald
feral
faye
ops
qian
swelling
unman
hock
bibliothe
shrimp
##yuan
stomp
hopped
##ennis
allegheny
robber
middlesbrough
rendezvous
##masters
rez
query
fingern
sincere
elevators
roommate
stainless
fluent
##entiary
spartak
souven
streetcar
ecuadorian
guadala
crowley
repealed
##jid
##olate
##sohn
##obs
wonderland
stut
isid
blanch
infirm
##jes
evapor
homec
xer
commodity
sabbath
uploaded
massey
tuscany
carver
honneur
beverage
pott
hopper
##ær
heron
##cera
##ulg
snoop
gardener
gry
gec
##bey
##rek
prima
##athletes
undes
criticizing
##61
commemorating
hov
##astically
estadio
dazz
slowing
biennale
morale
ignorance
ansel
hepat
sumo
bertrand
guadalajara
36th
ridley
busiest
hound
baronets
inadvert
gritted
scripture
zachary
perseus
anecd
baloch
##mic
woodstock
anthologies
coupling
scoff
unsett
950
kew
##iaceae
orchids
heiress
regis
larson
encompassing
##arde
enraged
cleop
shortest
##ovy
propagation
##olor
corona
##hari
aram
directional
fender
cortes
##cala
##6th
ather
polyp
divis
youths
retention
heroin
##93
interfaces
ccc
anom
accustomed
endure
illum
hua
paraguayan
sabotage
uj
reelected
puzzles
defiance
olson
algiers
horsesh
arson
264
1747
##ignment
bids
##etted
snack
casualty
tattoos
ensued
fused
affirmed
xml
ambitions
##chwitz
europ
manifold
adulthood
nonf
lw
##од
playful
##isma
gareth
blaine
1730
##itia
zed
##amu
chesterfield
proliferation
salford
4x
##brush
##mount
60th
doubling
pixel
talon
bathurst
##width
genevieve
alek
bedrooms
1100
andor
polygon
prostitute
##weg
embank
aint
pricing
midw
edna
honoring
emerges
persecut
disemb
stimulus
oils
1720
adjutant
compensate
##ovski
chik
prefers
jugg
spirituality
climbs
classmates
sato
fullback
afrika
ains
kinc
##ovka
fargo
babu
romney
luxur
spind
myri
gems
haunting
hugging
ee
##lingen
regal
##ricks
cairns
carmine
conflicting
lectured
##asher
chili
coasts
##cad
##fel
kd
balt
negotiation
##agements
ama
barbar
##illand
gru
##enschaft
researching
nast
mata
penit
hec
schiffer
apostle
creole
verified
alumnus
prevailing
detach
connolly
thistle
##gis
##etum
watercol
dhabi
jarvis
dodd
iberian
##ilio
reefs
differed
accusation
arranging
bwv
calais
indefinitely
gersh
rabbin
fon
amc
zub
comfortably
therapist
##erta
retailer
accumulation
straightforward
baptized
furnish
##ilah
efficacy
verdi
formulation
millionaire
reassuring
repeats
##ondition
##idered
populous
suarez
zionist
illustrate
psi
##tres
revolutionaries
##mak
##naire
dit
karel
##lishes
##cion
fanc
indent
willingly
nug
westwood
##akon
rih
gothenburg
lark
fetch
remotely
vitor
bif
##kovic
subr
crafted
rumours
sif
jagged
##aban
relocate
60s
##chia
grassland
sprinters
programmer
dietrich
yao
navajo
wiss
erwin
superiority
shipwrecks
roan
rosal
fiv
dungeons
##film
rr
shek
animator
karma
werewolves
nid
trot
tipp
crows
voyages
##bottom
charley
intentional
refrigerator
indigo
outcr
harcourt
1661
repression
snowy
croydon
postmaster
saturdays
bie
billings
chemists
ensembles
nakh
lingered
sukh
intrins
extrad
yev
##iale
agar
##aray
##olysis
##odina
handc
##9th
##otox
parcel
strad
creeping
acquainted
corrections
abusive
collaborating
aeros
sadie
##fal
##izi
##ivas
handel
1741
listener
highlanders
zeke
##avid
carv
imdb
provoked
approximation
craven
commentaries
eigen
##aceans
headlights
ie
alton
inductees
magu
swindon
schedules
233
##ecki
##usha
##eval
yerevan
inclin
janice
kickoff
pillows
balth
aristocratic
angled
referees
##oris
##olese
induce
qui
##hana
roach
funer
precedent
taf
##imated
jn
tease
##ontinent
incorrectly
malmo
nanny
repert
objection
breuning
grammat
bux
scarf
##ovol
maha
turkmenistan
hahn
oe
##brate
gears
##ablanca
silky
##ophile
radcliffe
penis
abrams
610
messy
aps
proportions
stero
elites
##grown
wilkins
abdomin
bonaparte
racers
catt
justification
guzman
miocene
wehrmacht
reeve
traveller
marley
filthy
angelica
neptune
##alski
dislike
aviator
staten
jens
rolf
sog
oblivious
arises
triest
henrietta
marshes
nutrients
xing
scandinavia
sync
weddings
lighthouses
headlines
hagen
milo
swings
fairs
relativity
preschool
epip
schooner
downing
302
techno
shudder
2a
wj
##antz
distorted
##adr
griffiths
##ichy
esqu
royalist
textual
coax
halves
parlor
sequels
lays
kard
lila
shaping
##icio
suppliers
camar
nfc
##itra
wiki
deteriorated
##endish
distributing
cramb
##cheon
conglomerate
bose
rods
uri
##cote
strapped
ledge
yeshiva
sighted
ghe
##enta
meiji
instructors
jock
norwood
lg
exemption
foliage
siena
dept
bonding
waterfalls
novo
gustaf
procurement
yvonne
brisk
narration
traveler
axes
tatar
wasting
flinched
garth
baronetage
ono
ironically
interiors
hilda
insanity
eaves
aroused
eagerly
gj
zeller
routed
burgl
gottingen
1690
testify
##amm
periodicals
clinging
copp
herring
fusil
transist
unavailable
huron
racehorses
haynes
##avo
monde
psalm
bumps
naga
##oden
bakers
mathias
##opt
coincide
adriatic
miniat
hove
##ocal
magnes
fisherman
expenditure
gillespie
opr
abducted
temperance
##esset
romano
mallory
frei
popularized
##tro
brownish
broadband
sighs
lizards
schoolteacher
pertaining
hazards
##astrop
lunged
##tel
##crow
rl
readiness
##zano
pulmonary
##gre
nuevo
##women
##lea
swami
sipped
seneca
benefited
clarified
laven
lansing
spilling
underwood
lengt
outn
baza
##arab
sharpe
vasily
lair
dionys
pereira
##kor
##odar
benoit
engagements
barking
homo
allevi
superseded
selena
ascend
organising
conserved
##inar
aggregator
bournemouth
flap
blossom
eureka
##otine
bearer
griev
twenties
sampson
stirring
navigator
bluegrass
analogous
glossy
fascination
andrey
planc
##osch
replaces
juli
vertically
ats
promo
paramilitary
discount
adolescent
resched
##bj
##shirt
##burne
##eny
247
galactic
tumbled
sven
johanna
apprenticeship
lacy
skeletal
fai
wetland
##ат
##educt
neutrality
marquette
##iek
conor
brothel
intra
bittern
wim
toh
##ounce
bakh
neder
pancre
fp
##zej
printers
glamorgan
establishes
##ayam
metad
sculpted
##iflora
38th
##uya
natalia
chinatown
blushed
assessing
##iegel
traverse
choking
rabbits
easton
petite
smoothed
veracruz
munitions
raman
knighted
corros
theorist
##upo
##otion
southbound
iec
242
quarterfinal
characterization
cdc
blurred
mcke
marlborough
l1
spaced
newtown
asserts
proudly
delle
234
sampled
broch
##gaon
rani
florent
szcz
##weiler
unauthor
vign
centimeters
226
##ayi
tanya
destroys
fuse
guerre
blizzard
husky
bleak
nagoya
ingrid
castel
cohes
pursu
ym
analyzing
gibbons
chaotic
independents
##ayne
deux
bolted
benf
fugitive
ballard
##gado
##aky
parch
davey
abbreviation
isf
##sw
evolve
generates
orbits
mainline
dharma
chao
gastro
##zai
adorned
taluk
willingness
glist
risky
sint
filipp
haas
macy
errone
##1st
jase
smackdown
steer
fremont
waik
burnley
blouse
soto
unison
##seau
argonaut
goethe
bsc
sweeney
##angle
##arek
xinjiang
sury
togo
jewellery
nouveau
orphans
paradigm
spikes
astur
koc
guiana
protesting
levant
##kim
subtit
conspicuous
toug
stalled
##aughlin
omin
garn
kobe
culturally
inventors
grasses
unaff
airlift
spheres
formulated
ochre
pew
##ricular
astra
fute
dashed
##ulously
homecoming
serum
##dad
blackmail
sparse
tammy
arroy
##ichord
compiling
bony
##illi
substitution
cland
terminate
puls
systemic
abandoning
airfields
liturgy
ester
##atable
petersen
inconsistent
decker
sahib
balm
lakshmi
hapl
disor
285
##kova
offseason
##ophagus
mule
legislator
##ariidae
appetite
sait
308
atoll
submissions
chico
##lach
nus
medications
vulgar
##kus
billionaire
congestion
enrico
##abited
flipping
henley
haver
suites
##pts
bipl
wd
canons
hurst
zhejiang
kro
decks
waterways
pivotal
##coon
kinn
fronts
konrad
giacomo
##fill
pals
dolores
cristina
##inee
grins
gemini
##emates
goaltender
dorothe
##belt
fielded
stamford
##avel
semantic
[...]
